#version: 0.2
Ġ a
i n
t h
in g
Ġ s
Ġ w
Ġ b
Ġ o
th e
a n
Ġ in
r e
e r
Ġ p
Ġ d
Ġ the
r o
Ġ c
h i
l e
a r
Ġ m
Ġ t
Ġ g
Ġd o
n d
l a
Ġo n
i s
Ġ f
c k
a l
Ġdo g
Ġ h
a t
Ġ is
u n
Ġa nd
i r
i t
Ġw i
Ġwi th
l o
Ġ r
Ġo f
e s
l d
Ġs t
e n
Ġm an
Ġw hi
o m
Ġb o
w o
i d
al l
Ġt o
ro u
an d
e ar
t e
o r
a s
Ġp la
e t
c h
w n
t wo
Ġ l
Ġpla y
Ġ j
e d
o n
ir l
Ġbo y
Ġg irl
m p
Ġ y
Ġa re
Ġwhi te
Ġ hi
Ġw at
la ck
Ġ <
Ġw om
o un
re d
g h
n o
Ġb lack
p le
g e
Ġr un
Ġw ear
Ġwom an
Ġa t
it t
Ġst and
Ġ th
k ing
er s
o u
a ck
Ġwear ing
Ġj u
e o
e a
eo ple
Ġwat er
Ġju mp
ar d
c e
id e
Ġ n
e l
hi ld
Ġ red
o o
oun g
Ġ lo
v er
ro wn
Ġg r
s s
u t
the r
Ġ ro
r i
u e
Ġb rown
Ġa n
no w
Ġc hild
Ġp eople
Ġy oung
Ġs now
r t
Ġb l
Ġf ro
Ġhi s
Ġs h
Ġbl ue
u r
Ġh o
as s
n ing
Ġs m
s t
hi rt
b o
Ġo ut
rou nd
Ġc o
i c
Ġgr ass
Ġdog s
Ġs hirt
rou gh
i m
Ġrun ning
Ġ u
Ġw al
Ġth rough
l l
Ġplay ing
lo w
Ġwhi le
re e
ld ing
Ġdo wn
a in
k e
Ġb all
Ġf i
Ġs k
Ġstand ing
itt le
a m
it s
Ġs w
v e
Ġo ver
Ġg re
Ġl ittle
t o
Ġr id
bo ard
Ġ le
ers on
i l
Ġlo o
ea ch
a d
n t
Ġb e
s e
Ġjump ing
Ġu p
e ld
k s
Ġp erson
Ġb ack
Ġfro nt
Ġt r
itt ing
Ġs itting
Ġc ar
Ġ la
b all
t s
Ġho lding
a p
Ġfi eld
Ġro ck
Ġsm all
Ġh er
a y
a b
Ġb y
Ġb u
Ġgre en
ar ge
Ġ k
om e
Ġr a
el low
rou p
Ġy ellow
re n
s ide
Ġl arge
Ġp ar
at e
Ġb i
Ġn ear
Ġg roup
th ree
Ġwal king
Ġa ir
Ġst re
Ġp o
y ing
Ġs p
a ir
Ġ e
oun t
Ġa s
Ġm ou
c le
Ġf or
gh t
Ġin to
re ss
Ġ re
Ġb each
n g
Ġm en
i ck
ount ain
Ġmou th
in d
Ġc h
Ġd ress
Ġchild ren
Ġjump s
i f
oo d
Ġon e
Ġc l
Ġs ome
im b
Ġstre et
in k
Ġn e
Ġa no
Ġano ther
Ġo ther
Ġ its
ro w
ate board
Ġrun s
Ġfro m
Ġt wo
Ġrid ing
Ġsk ateboard
r an
Ġstand s
Ġbi ke
g round
Ġof f
Ġw a
Ġm ountain
Ġwat ch
on e
m an
Ġs u
Ġj ack
or m
Ġs o
y cle
Ġgirl s
Ġjack et
Ġc am
Ġout side
oo l
t ing
en t
Ġb as
ea d
Ġh at
x t
u l
Ġm o
Ġsw im
Ġsh o
ran ge
ro ss
Ġl i
Ġne xt
ri ck
Ġloo king
Ġh and
Ġp ink
Ġo range
le s
Ġplay er
at ch
ir t
Ġcl imb
Ġs ide
er a
Ġcam era
u m
Ġf a
u re
a k
Ġp ool
v es
Ġw ood
Ġthe ir
ab le
ou r
e p
Ġg o
oo t
or t
c t
Ġbe h
p p
c er
Ġsw ing
Ġa round
s h
Ġboy s
il ing
Ġbeh ind
Ġto y
Ġd irt
Ġs ur
Ġc atch
Ġh ead
d o
row d
Ġp u
Ġwom en
th ing
i g
i on
Ġc rowd
Ġb ic
Ġa lo
Ġback ground
la ss
Ġs un
Ġs and
Ġst ick
Ġbu i
Ġf oot
l y
Ġbui lding
c cer
Ġw all
Ġs its
k et
Ġdress ed
f f
Ġso ccer
w ard
Ġalo ng
Ġh as
p e
Ġho ld
Ġc lo
Ġsh ort
d y
Ġwal ks
Ġp a
c ross
t ure
t er
Ġc a
Ġplay s
i es
Ġfoot ball
Ġd r
Ġh el
Ġp ic
Ġt rick
Ġpar k
Ġbic ycle
Ġfa ce
a g
Ġloo ks
Ġhi ll
Ġs l
Ġco lo
Ġclimb ing
Ġto p
c ing
Ġw h
l ing
Ġa cross
lass es
s ing
a king
Ġa r
Ġ un
Ġpic ture
Ġswim m
Ġgrass y
Ġb lo
Ġhold s
Ġ i
al k
g ing
p eople
ce an
Ġo cean
Ġt en
Ġcar r
am e
Ġc ou
w ay
i ght
Ġrid es
t or
le d
Ġs e
Ġswimm ing
Ġsm iling
Ġcarr ying
Ġf l
Ġg u
Ġf o
Ġ each
Ġhi m
Ġ it
Ġdo ing
Ġh air
Ġm u
n is
Ġt ree
v ing
Ġten nis
Ġra ce
Ġbas ket
Ġsnow y
in e
Ġar m
is s
ab y
m et
Ġhel met
Ġto ge
Ġtoge ther
Ġf en
Ġmo tor
Ġ v
Ġb en
w alk
Ġro ad
er f
Ġb aby
if orm
Ġare a
Ġun iform
ar k
Ġth at
Ġto ward
Ġben ch
Ġf ri
do or
f our
Ġtr a
Ġca mp
Ġbasket ball
a ch
Ġh or
it y
Ġle ap
Ġsnow board
Ġside walk
Ġp ur
Ġs c
g s
nd er
Ġco ve
Ġcove red
Ġs it
is t
e y
Ġg ame
Ġo ld
Ġg round
Ġp erf
n e
at ing
Ġgre y
Ġu nder
re st
Ġsome thing
Ġperf orm
an s
Ġbas e
Ġh a
Ġg et
Ġmotor c
Ġbe ing
Ġfen ce
Ġo b
Ġk iss
Ġfri able
Ġf lo
Ġpa th
r a
Ġc om
Ġla ke
s es
q u
es s
Ġtr ack
e m
Ġwal k
a ge
te d
ig n
Ġc on
Ġt e
Ġc ity
Ġr i
Ġlo ng
ver al
Ġwa ve
ak es
Ġbo at
Ġhi gh
Ġpur ple
Ġp i
Ġout door
if f
a re
Ġs ign
Ġb ar
Ġd an
p ed
is h
Ġsur f
Ġsl ide
Ġco at
Ġa d
Ġst ri
Ġsm i
Ġd e
Ġt re
as t
ll er
Ġthe m
ir d
Ġbase ball
Ġlo sing
Ġb r
Ġbi g
la sh
Ġwatch ing
Ġskateboard er
p h
Ġre ad
e ans
Ġwood en
u g
Ġplay ers
c es
g lasses
Ġd ark
Ġsun glasses
Ġwatch es
an t
b b
Ġsp lash
Ġmotorc ycle
the re
Ġsu it
Ġle a
Ġloo k
Ġp h
y c
i re
Ġpar ts
Ġtre es
Ġt able
Ġh an
ur f
Ġf la
ri es
Ġa g
Ġf low
Ġsk in
Ġri ver
Ġb es
Ġrock s
Ġr ide
Ġb it
Ġro pe
e w
Ġa m
Ġco ll
e et
Ġcou ple
Ġtoward s
Ġa f
Ġb al
bo y
Ġarm s
Ġbes ide
Ġ no
Ġhand s
as h
Ġl imb
Ġc ap
Ġco st
Ġrock y
Ġch as
Ġwh e
Ġhor se
i ve
p s
Ġm id
Ġb ird
ea m
a le
Ġb ag
Ġo p
d le
Ġth row
o w
Ġd ri
Ġdo es
Ġh e
Ġst o
Ġk ick
c hild
urf ul
b y
se veral
Ġcolo urful
o d
bo ve
e ct
Ġa bove
Ġout f
ck ey
Ġj eans
Ġi ce
m ent
st a
w om
Ġra cing
Ġcolo red
Ġwh o
Ġstri ped
Ġop en
f t
i a
it ar
Ġsnowboard er
Ġad ul
Ġth ree
Ġmountain s
Ġi mp
u ck
Ġfi ght
Ġpo se
i red
Ġs et
Ġsk ies
u it
Ġcost um
n ess
p ack
Ġw ind
Ġsur round
a ke
Ġc an
Ġg lasses
Ġon to
Ġwood s
Ġback pack
Ġcoll ar
Ġimp air
o to
Ġt eam
Ġt aking
Ġla dy
y oung
Ġt al
Ġm ar
Ġcl iff
Ġph oto
Ġc ross
Ġold er
Ġag ain
o k
Ġleap s
Ġha ired
Ġlimb s
r y
ou t
Ġagain st
nd e
Ġbo dy
Ġplay ground
Ġy ard
Ġbo x
Ġch air
Ġbu s
Ġmu d
d ing
u ll
ak er
Ġst ep
at s
Ġle d
Ġsu ff
Ġperform ing
Ġf ish
Ġbo ard
Ġsho re
pp ing
Ġgu y
Ġb a
Ġsmi les
Ġaf ter
u b
Ġblo nde
Ġp ain
Ġla ying
t t
um b
Ġh u
ll ing
Ġgu itar
ph one
Ġchas ing
h ou
i p
Ġsp r
Ġrid er
Ġswim s
Ġmid dle
s ome
Ġas ia
Ġli ght
wom an
Ġf ountain
ver y
Ġho ckey
Ġwhe el
ear s
Ġsurround ed
r ap
at ion
Ġsuff er
Ġb rick
Ġg a
Ġgr a
Ġsk y
Ġst air
ur ing
Ġblo od
n er
o king
Ġn ight
ad e
d d
Ġ ed
Ġw et
Ġpo in
Ġfl ying
Ġin side
Ġc as
Ġsho w
Ġbr id
Ġother s
Ġgo ld
Ġed ge
g irl
Ġa way
Ġb ed
Ġd uring
Ġt akes
Ġfi re
Ġsh e
Ġtr ying
u ff
Ġa b
Ġk id
Ġb ri
ur n
Ġwa it
Ġhan ging
i ce
Ġw rest
u gh
Ġb aker
Ġf all
Ġto ller
do g
Ġ very
Ġfo rest
Ġob j
Ġflo or
Ġoutf it
Ġp re
Ġh ou
Ġdr in
Ġbri ght
Ġ en
ch ed
Ġgr ay
Ġpo le
Ġsurf board
child ren
Ġp ro
Ġla ugh
un g
Ġobj ect
Ġe x
Ġtra il
Ġtal king
l ittle
Ġstep s
r u
Ġm aking
id ing
Ġnear by
Ġch e
Ġp ast
nd s
al low
Ġl ine
l st
es t
Ġwhi lst
Ġtr ain
Ġa ll
Ġb an
Ġgo ing
Ġwind ow
Ġab out
an ce
Ġl if
Ġle ash
Ġpu sh
Ġflow ers
m b
Ġt all
yc ling
v ed
Ġb ear
Ġswing ing
Ġcom p
w e
Ġd ay
Ġpar t
Ġe ating
Ġclo the
Ġdan cing
Ġlea ves
im al
Ġh ard
Ġh ood
Ġj ers
Ġpo ses
Ġwa ves
Ġbrid ge
Ġjers ey
at ed
Ġco w
Ġle gs
il y
Ġcostum e
u d
Ġbo tt
ch ing
Ġe y
n y
g es
p erson
Ġan imal
Ġv i
b lack
Ġw in
Ġst ar
te mp
Ġro om
st ic
Ġra il
Ġleap ing
o l
Ġc our
Ġclothe s
ing s
Ġcour se
Ġsh allow
Ġob sta
Ġobsta cle
h er
Ġs le
re l
er man
Ġg i
Ġat temp
Ġgo al
ct ion
Ġfight ing
Ġhou se
v el
Ġb low
Ġsc ar
Ġpla stic
Ġli ke
Ġbit es
ap er
Ġbu bb
Ġclo thing
Ġst at
Ġst one
Ġat t
Ġtr un
Ġcar ries
Ġsplash ing
i al
Ġ ve
Ġp l
Ġget ting
Ġb et
Ġg un
Ġshirt s
c re
s c
Ġd ist
Ġl and
Ġn umb
Ġle an
Ġra iling
Ġre st
Ġread y
Ġm et
Ġt ire
Ġte en
Ġde ep
we en
Ġbet ween
Ġb at
Ġcatch es
Ġsl iding
Ġ ves
le y
id es
Ġw or
Ġc or
Ġover lo
Ġstre am
Ġre ach
Ġclimb er
Ġadul t
a il
th is
Ġtra mp
yc l
Ġsto re
Ġla wn
Ġskateboard ing
Ġba thing
z z
Ġto ng
Ġsw eet
Ġcon cre
Ġhu ge
Ġsweet er
Ġconcre te
f ive
Ġd es
Ġf em
Ġwait ing
Ġwin ter
Ġtramp ling
Ġt urn
Ġg ear
Ġte le
Ġmet al
Ġs ides
Ġthe y
Ġf our
man y
f la
Ġwear s
Ġro ller
Ġuniform s
b or
Ġo r
Ġc ur
Ġre t
w s
Ġa l
Ġd is
nd ing
Ġfo l
Ġgrey hou
Ġm ale
Ġh ar
pp y
Ġtong ue
m en
Ġpu lling
Ġpo l
Ġcatch ing
Ġsand y
l led
Ġhi t
Ġlo t
Ġup side
Ġback ward
Ġthrow ing
Ġstair s
Ġgold en
Ġdist ance
g rap
Ġs il
Ġdo or
ic an
Ġdr ink
Ġcou rt
i v
Ġp ut
Ġm akes
Ġt ries
Ġh al
Ġget s
Ġfish ing
Ġcas es
Ġbear d
Ġtele phone
y s
Ġst age
Ġli p
Ġsmi le
m m
Ġa pp
Ġw ad
el l
Ġsk i
Ġfl ies
Ġphoto grap
Ġwrest le
u s
ri c
Ġcar t
Ġcou ch
Ġoverlo oking
Ġsp o
Ġnumb er
Ġbo o
Ġsu b
Ġam er
Ġbus y
d e
hi cle
Ġk ne
Ġwood ed
Ġclo se
Ġtrick s
Ġread ing
Ġsplash ed
Ġve hicle
s et
Ġa rt
Ġp ass
Ġbo w
Ġwat ers
Ġdrin king
Ġtrun ks
Ġs i
Ġb re
Ġo pp
an k
Ġl ying
Ġne ck
Ġfla g
Ġfem ale
j o
Ġu mb
Ġsur ging
Ġpu dd
Ġshort ness
Ġadul ts
rel la
Ġves t
Ġumb rella
Ġpudd les
f all
Ġe qu
Ġpu ppy
Ġhor ses
Ġpre p
Ġhar ness
Ġs n
Ġs lo
on er
Ġpo nd
Ġli king
Ġlaugh ing
Ġcomp et
Ġamer ican
i e
s m
Ġc le
Ġr u
Ġr ight
Ġsh ou
Ġsw e
Ġlean ing
Ġdo ck
Ġsho pping
Ġsun set
em ent
Ġey es
Ġfol low
e ed
Ġc ig
Ġf ood
at t
it ion
Ġr ain
ld er
on s
ri e
Ġspr ay
Ġvi ew
Ġp it
Ġf ur
al le
eld er
Ġso oner
Ġhat s
way s
b rown
p la
Ġp aper
Ġc ount
Ġm as
Ġm ake
Ġh ug
Ġwater fall
Ġlo g
Ġsho es
Ġno se
some one
Ġhal f
i um
en ts
Ġle ft
Ġra is
ul t
Ġcom ing
Ġcan o
Ġen jo
Ġlif e
a w
le ss
ar ay
Ġf eet
Ġtr uck
ip ment
Ġbubb les
Ġequ ipment
b i
v ent
at er
Ġst ung
ur ant
Ġk aray
Ġre sta
Ġblo ck
Ġse veral
ru ct
Ġscar f
Ġret rie
Ġresta urant
a ce
n el
it i
Ġj es
el f
am ily
Ġfor m
Ġpol ice
Ġswe ats
Ġ elder
Ġs qu
Ġc u
at or
Ġbo ok
on es
ou s
Ġmu zz
Ġgra ff
Ġgun s
Ġt ent
ck et
Ġhard ly
Ġmas k
Ġgraff iti
c ed
the red
Ġf ull
Ġst ating
Ġbo th
Ġsp or
Ġpl an
Ġcig are
Ġcano e
b la
l ine
Ġp ack
Ġm on
Ġt ake
Ġst e
ep her
Ġbit ing
Ġset ting
ub e
epher d
c o
f e
Ġst ruct
Ġro w
Ġsh epherd
Ġk it
Ġmu s
Ġmud dy
Ġga ther
Ġsweats hirt
Ġelder ly
Ġstruct ure
i ving
Ġr ug
st r
ap p
ra w
Ġfall ing
Ġsle ep
Ġjes uit
c or
Ġs ing
Ġb and
Ġb are
Ġin fla
is ts
Ġf amily
Ġlo w
Ġlo ne
Ġdr y
Ġfla gs
g er
m o
er t
Ġst ate
Ġbo u
Ġsk irt
Ġra ft
ink led
Ġcrowd ed
Ġbag s
Ġslo pe
i an
Ġc r
Ġt un
Ġt ank
Ġg or
Ġbu cket
Ġdress es
Ġgreyhou nd
Ġopp o
g y
t te
Ġin door
ro om
Ġhi ding
Ġe le
Ġled ge
Ġroller bla
Ġcigare tte
o re
in es
Ġc rou
Ġpi le
e re
p ing
w hi
Ġ ear
Ġs a
Ġw ar
Ġc ement
Ġfa ces
Ġpi e
Ġflow er
Ġdri ving
Ġspr inkled
bor ne
Ġgor ges
f oot
t y
Ġd iving
Ġc re
Ġsu pp
Ġgo es
Ġha ve
Ġdan ce
Ġbott le
Ġ qu
Ġc ycling
Ġm ark
Ġf ing
un ch
ll s
Ġpar king
Ġair borne
ak ed
are s
Ġbal lo
Ġkick ing
Ġcostum es
mm able
sm all
alle n
Ġmus ic
Ġinfla mmable
an ket
Ġd uck
Ġg erman
Ġr ing
Ġbl anket
Ġbu ll
Ġk ay
Ġsome one
Ġsto p
Ġsub ways
Ġspor ts
Ġf un
Ġst r
Ġto u
Ġsh aking
Ġball s
Ġle g
Ġbuilding s
Ġpain t
Ġteen age
ro phone
Ġm ic
Ġm ult
Ġf allen
Ġfo re
Ġsc en
Ġpoin ts
Ġtun nel
Ġmic rophone
p es
v en
Ġ ears
Ġg lo
Ġf r
Ġh app
Ġst uff
Ġman y
Ġsp ea
b an
in s
Ġp ad
wo r
ri er
Ġpar ade
Ġjacket s
Ġcon t
Ġbal an
Ġga thered
v ers
z ed
Ġt u
Ġt ack
Ġf et
all y
Ġsm oking
Ġsmall er
Ġli ps
Ġlea ther
Ġthrow s
Ġchair s
Ġpoin ting
Ġsil ver
Ġboo ts
Ġpie ce
d er
Ġp et
Ġh eld
as e
ur al
Ġle ad
Ġe vent
Ġsun ny
Ġpicture s
Ġmotorc ycl
Ġpush ing
b and
s k
u st
Ġw r
Ġb ea
Ġb ut
Ġb ran
le t
ar ing
Ġh ome
ch es
on y
Ġn et
Ġch ew
Ġunder w
Ġsurf ace
Ġkick s
Ġpain ted
uff y
Ġspo t
att oo
ator s
m er
Ġs hi
Ġc at
hi ll
gh ts
Ġco ver
Ġu sing
Ġoutf its
Ġcow boy
whi te
i x
Ġt attoo
on g
ag er
Ġstat ue
Ġstuff ed
l ies
u mp
Ġg lass
Ġgr ind
Ġcar s
Ġbic ycling
Ġstick s
Ġfl uffy
Ġmar ket
Ġswims uit
Ġblow ing
Ġste ep
l ic
Ġ round
Ġd ig
Ġt ug
Ġt ube
is sing
Ġf an
Ġsu its
Ġv ol
Ġdrin ks
Ġscen e
Ġb ro
Ġo wn
Ġp ea
Ġm er
Ġbu sh
Ġra ces
Ġsho t
Ġse ated
Ġcross ing
Ġshe ep
Ġwrest ing
ley ball
Ġwor k
Ġsleep ing
Ġvol leyball
b r
Ġa p
Ġh ind
ed ding
ap e
Ġche er
Ġcor ner
Ġdis pla
iv al
Ġphotograp h
Ġfur ry
Ġhug ging
Ġmuzz le
Ġrug by
d ies
i ge
t ched
Ġs ay
Ġs ame
Ġin d
Ġp an
Ġt ears
Ġpla t
Ġsp eed
Ġe mp
Ġdr um
ach ed
Ġhan gs
Ġbal d
Ġba th
Ġattemp ting
Ġru bb
Ġretrie ved
Ġsupp lies
r ack
Ġb unch
Ġp r
Ġp ick
Ġm eans
Ġf ew
Ġl it
ur ban
Ġk issing
ph ones
Ġam ong
Ġpart y
Ġstar ing
Ġgi ves
Ġattemp ts
Ġmark ed
g ed
Ġs ad
Ġc ut
Ġg ard
Ġf air
Ġh ers
ch ool
Ġl ick
Ġsh ad
st and
im e
Ġfi lled
Ġla ys
Ġstat es
Ġwad ing
ric an
Ġcompet ition
Ġcu p
Ġgard en
n ic
Ġw ay
Ġin str
Ġc and
Ġbe low
Ġe nd
Ġfa cing
Ġph one
Ġbott om
Ġdes ert
Ġsn iff
Ġcle ar
Ġmotorcycl ist
Ġinstr um
k iss
s ed
Ġw ings
Ġt ro
Ġf ast
Ġwi de
lo ok
st re
Ġbe ige
Ġsho p
Ġhead s
Ġstick ing
Ġfen ced
Ġwheel s
Ġteen ager
e red
o se
u se
Ġst ro
Ġgr m
ut if
am a
Ġsp ect
Ġch ain
Ġsnowboard ing
Ġatt ached
Ġunderw ater
utif ul
c et
n ed
Ġ rough
Ġs chool
Ġl in
Ġj o
Ġro lling
Ġsh oo
Ġtr y
Ġra cet
Ġpo les
Ġe ats
Ġoff ic
Ġwa ving
Ġhead band
ycl ists
Ġcount ry
look ers
Ġracet rack
f orm
s pe
s ix
is e
al s
Ġwhi ch
id eo
ic al
Ġwa ke
Ġv ideo
Ġflo ating
ra ct
Ġdan ces
Ġaf rican
Ġtal ks
ull y
Ġgra vel
Ġspect ators
a les
f ully
h aw
u te
u ght
Ġs ea
Ġju st
ea th
ic o
Ġla dies
Ġmo to
Ġse at
Ġfri e
Ġpi er
Ġsign s
Ġche ck
Ġprep ares
Ġfun ny
Ġtu la
Ġemp ty
d ling
i er
Ġd ire
Ġc ard
Ġm ed
nd ed
Ġpla id
Ġhi ts
Ġth ose
ri ed
Ġdown hill
Ġpar ach
Ġpo st
Ġmo haw
Ġhand stand
Ġtoy s
Ġpu b
Ġclo ud
Ġcolo r
Ġpush es
ud i
Ġhalf way
Ġbran ch
Ġdispla y
Ġmoto cross
Ġmohaw k
t on
Ġ urban
an a
Ġm e
Ġt ur
Ġon lookers
Ġn aked
ver t
ve ment
Ġbe g
do gs
Ġpa vement
Ġmotor bi
Ġha ving
Ġwad dling
Ġshou lder
Ġbea utiful
Ġplat form
Ġpub lic
e e
g roup
Ġp ul
Ġd iff
Ġt er
Ġth rown
Ġskateboard s
rick et
ff ic
Ġflo at
Ġbird s
Ġpain ting
Ġshow ing
sc ape
Ġland scape
ere nt
Ġglo ves
stre tched
Ġdiff erent
o ke
in ning
Ġp ract
Ġt i
it e
Ġr ap
Ġout stretched
Ġcar p
Ġne ws
Ġtra ffic
Ġbr ide
Ġread s
Ġreach ing
Ġcre am
Ġchew ing
Ġwake board
Ġrap id
e th
f ore
i ous
u sh
Ġc ree
Ġc lass
Ġc ricket
le ad
Ġt ie
Ġr an
Ġr ural
en ce
ch en
Ġfi ve
Ġbe er
Ġte eth
Ġbar s
Ġdri ves
girl s
Ġban ana
Ġsle e
Ġrest ing
Ġbow l
Ġkit chen
Ġcrou ched
c ase
h ead
l arge
n ival
s o
v y
Ġh oo
Ġwi re
ke y
Ġbe fore
Ġcar nival
Ġfl ight
Ġban k
Ġreach es
Ġwaters k
Ġbare foot
Ġoppo sing
Ġballo on
Ġsay s
Ġnews p
b le
c lo
d s
Ġ Ġ
Ġw edding
Ġm atch
et te
Ġyoung er
Ġco l
to p
il s
Ġla p
Ġwa its
ul ar
Ġli es
Ġpa ved
ter n
Ġde cor
Ġex p
Ġcur ly
Ġplan ts
Ġtack le
Ġcarp et
Ġcree k
f s
m e
r ain
Ġc ir
Ġr is
Ġst ad
Ġsm oke
Ġstre t
Ġmo ther
Ġdirt y
Ġhead phones
Ġse e
ess ion
Ġpi pe
ant a
Ġblow s
Ġphotograp her
Ġform ation
Ġlin ed
Ġstad ium
g re
l and
r ist
Ġc hi
Ġc raw
Ġm il
Ġh ea
ir st
es e
ld ers
Ġth ird
Ġmo ving
Ġdr ag
Ġhelmet s
Ġsc re
ra ce
Ġanimal s
Ġbeard ed
Ġshou lders
Ġfore ground
Ġbush es
Ġpr in
Ġsad d
d es
k es
m as
an e
er y
Ġd ead
al m
at es
el ing
Ġmouth s
Ġch rist
Ġli ghts
ak ers
Ġse en
Ġde ck
Ġam use
Ġchas e
wom en
Ġfall s
Ġkne es
Ġsing ing
Ġbou nding
Ġfing er
Ġpad dle
Ġcover ing
Ġshad ow
Ġinstrum ents
Ġpul led
Ġamuse ment
f et
g u
g le
Ġa c
Ġa th
Ġp atch
Ġd ro
Ġm ach
Ġt alk
Ġh ay
Ġrun ner
el ling
Ġk n
Ġe mb
Ġtra vel
Ġwhe re
Ġhit ting
Ġwr it
Ġspot ted
Ġstro lled
Ġshoo ting
Ġmotorbi ke
f ting
Ġ ent
Ġa udi
Ġs erf
ro n
Ġc la
Ġg l
Ġg ar
Ġf ar
Ġf ly
Ġro pes
pp ed
Ġgu ard
Ġboat s
Ġstair case
Ġbright ly
Ġput ting
Ġneck la
Ġprep aring
Ġnewsp aper
Ġchrist mas
Ġaudi ence
n a
t ion
t ial
Ġp at
Ġd en
Ġg ate
en s
Ġpla ce
ea ther
Ġsh akes
Ġho le
ic ip
Ġre f
Ġalong side
Ġclo wn
Ġpur se
Ġpro f
Ġcomp ut
Ġgi ant
Ġbubb le
Ġpit ch
Ġrais es
Ġgrind ing
Ġcheer lead
Ġpract ic
Ġhoo fs
Ġsadd les
b ack
Ġs er
Ġs wor
Ġs anta
Ġw rap
re ad
er ing
ar ger
Ġm em
Ġm ade
Ġpla te
Ġl arger
Ġy ou
Ġn at
Ġgr ab
bo at
Ġco ld
Ġre la
Ġpu lls
qu et
Ġtrack s
ash ing
Ġmar tial
Ġpro te
Ġey e
Ġsil hou
Ġapp ears
Ġfollow s
Ġcount er
Ġdig ging
Ġdire ction
Ġter rain
Ġserf s
h o
i ll
Ġd ust
Ġst raw
el s
Ġro de
st ru
ll ers
Ġpar as
Ġhand ra
Ġalo ne
Ġsl i
Ġad vert
Ġhood ed
Ġgi ving
Ġgreyhou nds
Ġapp ro
Ġbre ak
Ġenjo ys
Ġrow ing
Ġkit e
Ġduck s
Ġbalan cing
Ġden is
Ġhandra ils
Ġadvert is
g on
i z
s now
s elf
Ġs la
Ġs ail
Ġin ter
Ġm at
Ġt w
Ġt y
Ġst ation
Ġto w
Ġto ss
Ġplay ed
ed s
Ġro b
Ġsh ag
Ġback s
ap ed
Ġsp inning
Ġe as
Ġpic nic
Ġhim self
Ġcon stru
Ġri bb
dd er
Ġshow s
Ġpart icip
Ġbackward s
Ġput s
Ġkne eling
Ġindoor s
Ġmult i
Ġmult ico
Ġcand les
Ġparach ute
Ġmultico lo
e an
f ire
s er
ro r
ch air
Ġplay fully
Ġj ung
Ġjump ed
Ġro o
Ġsk ir
Ġcam el
Ġbit e
itar y
Ġgra fting
Ġlaugh s
Ġvi ol
Ġsqu at
Ġele ct
Ġwar m
Ġqu ick
sk ateboard
Ġpea ce
Ġsniff ing
Ġcloud s
Ġneckla ce
Ġrela x
Ġappro ach
Ġshag gy
Ġjung le
b lo
e c
n eath
Ġd in
Ġthe re
Ġc e
Ġt ick
Ġdo ne
Ġla dder
Ġsu spe
Ġpu ll
Ġclo th
Ġswimm er
Ġit em
Ġunder neath
Ġhan g
Ġcoll ide
Ġbackpack s
ok es
sc ar
Ġdoor way
Ġpass ing
Ġenjo ying
Ġpolice man
fe ree
Ġsa fet
Ġfing ers
Ġhapp y
Ġown er
Ġlick ing
Ġris k
Ġwrit ing
Ġmem b
Ġconstru ction
Ġsuspe nded
Ġsafet y
g gy
h ood
o c
q ue
s el
u red
w h
Ġin c
Ġt each
Ġt ak
Ġbo n
Ġbo un
id ent
Ġn on
Ġbe en
Ġmou nd
Ġwa gon
Ġlea f
Ġskin ned
Ġdri ve
Ġcor n
Ġcompet ing
Ġplan e
Ġoppo s
Ġfet ch
Ġpan ama
Ġmach ine
Ġviol in
o p
t ail
y m
y ard
Ġp en
Ġp ig
Ġp ony
Ġc one
ar t
Ġm ir
Ġm ur
Ġst ump
ou fla
Ġrid ers
Ġair p
Ġsp read
Ġre feree
Ġsu m
Ġcam oufla
Ġhead scar
Ġpa ws
Ġhill side
Ġpi ge
Ġbar rier
Ġcoat s
boy s
Ġwheel chair
Ġmer rier
Ġfrie nd
Ġdecor ated
ession al
Ġscre en
Ġcomput er
Ġquick ly
Ġtak en
Ġoppos ite
Ġmir ror
Ġcamoufla ge
l in
the se
Ġt ri
Ġt ail
Ġg ro
it or
Ġwith out
Ġl ist
Ġth umb
Ġn a
Ġho t
Ġco ff
Ġla b
Ġla y
Ġe mer
Ġch est
Ġne w
Ġwatch ed
um n
Ġca ught
Ġhel ps
Ġob ser
ug g
Ġdri ver
Ġwind s
Ġpro t
Ġtrun k
Ġspo ts
Ġrollerbla ding
Ġrollerbla des
foot ball
Ġkay aking
Ġstr ing
Ġbalan ces
a ks
f ro
z en
Ġb el
Ġb ur
Ġd us
Ġg room
al ing
Ġr ate
Ġro lls
ur ry
ll y
Ġover all
Ġbu nd
Ġfor ward
Ġstreet s
Ġsho wn
Ġten ts
Ġno t
Ġland ing
Ġdis c
Ġcourt yard
Ġart s
Ġform al
Ġballo ons
Ġfr ame
Ġhome less
Ġkn it
Ġprof essional
Ġcoff ee
l f
o ld
Ġm ass
Ġg ym
itt en
Ġsh aped
Ġho pe
st er
Ġu ses
Ġsp id
Ġe at
ct ive
Ġhel ping
Ġbar king
Ġde v
Ġmotorcycle s
Ġlimb ers
Ġcost er
Ġche e
Ġal so
Ġsi zed
Ġmuzz led
Ġmon key
Ġtou ching
Ġhapp ily
Ġspea k
Ġfet ching
Ġtro t
Ġcard board
Ġmed ium
Ġbeg ins
Ġran ge
Ġhea vy
Ġpractic ing
Ġsla ter
skateboard er
Ġpige ons
Ġgro cer
Ġbund les
Ġgym n
c y
l ight
Ġ ke
Ġw ine
Ġb akers
Ġp or
hi on
le ep
ar row
Ġt ime
Ġf ree
al ley
en ing
Ġj ean
Ġsnow ball
Ġfro zen
Ġco ach
im i
Ġfi g
il ity
Ġbe nding
Ġpo w
Ġsp ark
Ġas leep
Ġch ess
Ġmountain side
Ġso d
ead ed
Ġstri p
Ġflow ered
Ġbal c
ub s
Ġrest s
Ġdes ce
Ġsi x
Ġfollow ing
Ġlog ging
Ġrais ed
Ġblock s
mo st
Ġcr ashing
Ġpet ting
Ġrubb er
Ġcir cle
Ġmil itary
Ġref le
Ġheadscar f
Ġdus k
Ġsnowball s
b ull
i o
i ing
i ans
i ble
l ane
u al
z e
Ġ im
Ġa ction
Ġp ir
Ġp ort
Ġd a
Ġt ight
Ġon ly
Ġwhi st
te red
Ġpla in
Ġj et
Ġth ou
Ġbe nd
Ġpo s
Ġmountain top
Ġgo lf
Ġca ke
Ġv alley
Ġhor iz
Ġbar rel
Ġbr ush
Ġlea ving
Ġsurround ing
Ġcross es
Ġbox ing
Ġshore line
Ġhu dd
Ġtrain ing
Ġatt ire
Ġtire s
Ġturn s
Ġspray ed
bi le
Ġspea king
Ġrubb les
Ġtur ning
Ġslee ves
Ġwrap ped
fro nt
Ġoverall s
Ġpor ch
Ġbalc ony
Ġhoriz on
Ġhudd led
c ial
f a
n ers
s p
u its
Ġ ea
Ġw ell
Ġb in
Ġb eam
Ġin te
Ġc oo
Ġc ent
ar s
Ġg e
ck s
Ġst ud
id ed
Ġto wn
Ġsnow s
Ġho w
bo w
ap ped
ab les
Ġch ur
ul p
Ġhand le
Ġhill s
Ġfl urry
Ġfo ggy
Ġv ar
Ġcamp fire
Ġsc and
Ġcom es
Ġfla ps
Ġam id
Ġboard walk
Ġwheel er
Ġex c
Ġban quet
Ġatt ack
Ġwor king
Ġcur b
Ġcur ve
Ġal most
Ġsqu are
Ġtack led
Ġlead s
Ġind ian
Ġbath room
Ġwatersk iing
Ġcol le
snow board
Ġskir ts
Ġdin ner
Ġbon es
d en
k in
n s
o s
u es
u dy
y le
Ġa ut
Ġa head
Ġp e
Ġp air
Ġp ine
Ġp alm
Ġm ess
Ġm imi
Ġf irst
Ġst rap
Ġju d
Ġsh eet
Ġsm okes
Ġsp ort
Ġre ce
Ġsho vel
Ġfa ther
Ġclo sed
Ġclo udy
Ġtrick le
Ġfo am
Ġsc ulp
Ġde fe
Ġthem sel
Ġfla m
ub a
est ri
Ġal ley
Ġenjo y
Ġcrou ching
Ġcont ro
Ġcont ain
Ġmer ry
Ġwork ers
Ġoffic er
Ġcraw l
Ġeas tern
Ġairp lane
Ġea gle
Ġsculp ture
Ġthemsel ves
a z
a ct
d u
e led
f ul
i gh
i ke
m a
t ube
v al
Ġb la
an g
Ġp ed
Ġp il
Ġc ast
le ts
le br
ar p
ar y
Ġm ag
Ġt ut
la te
Ġf est
Ġf eed
it ed
Ġbo r
Ġto o
as ia
Ġth in
Ġsh arp
Ġpo t
Ġsu mm
Ġmo ves
Ġwood land
Ġcon cer
Ġpoin t
Ġex am
Ġlif t
Ġrest less
Ġdes k
Ġvehicle s
Ġrain bow
Ġgather ing
Ġap ple
Ġjo ckey
Ġcolor s
clo se
Ġath let
Ġfar m
Ġty pe
Ġtow el
Ġribb on
Ġmulticolo red
Ġsquat ting
Ġce lebr
Ġthumb s
Ġhope less
Ġke ep
Ġim age
Ġthou gh
c om
c ting
c ent
d ay
g et
o lder
v i
Ġin ner
Ġd im
ro pe
Ġc yclists
Ġc uba
Ġt ig
Ġt ag
Ġt ables
Ġf eather
ck ed
at io
un ched
Ġwi ld
Ġr atio
Ġst om
Ġth is
Ġro llers
ain s
ap ers
Ġsp lin
Ġch alk
Ġmo ve
Ġbeh eaded
Ġca ve
Ġdr ama
Ġhel p
Ġkiss es
Ġwhe eled
Ġteam m
Ġmar king
Ġcross way
Ġcas e
Ġpre te
Ġstar ting
Ġscar ves
Ġves ts
Ġturn ed
Ġkne e
Ġpass es
Ġspray ing
Ġkay aker
Ġlead ing
Ġshi p
Ġfan cy
Ġap ron
Ġdrum s
Ġcheck ed
gre y
Ġchi ck
Ġpitch er
Ġswor d
blo od
Ġwinds urf
Ġchee k
Ġfig ure
Ġsod a
Ġchur ch
Ġscand als
Ġpil low
Ġtig er
Ġstom ach
Ġrollers k
Ġsplin ts
a th
p t
p er
t ime
Ġa im
Ġb ead
Ġp er
Ġp our
la h
Ġh ear
lo ng
Ġst ool
Ġsnow mo
Ġsh oot
ic s
Ġsk ull
Ġsw an
Ġtr ash
Ġbu l
Ġits elf
Ġso fa
Ġmo st
Ġli ving
Ġcatch er
Ġbic yclists
Ġcarr y
Ġse ats
Ġse aling
Ġv is
Ġsc r
Ġcon vers
Ġag ed
Ġshow er
Ġen g
Ġen clo
Ġban ner
Ġopp on
pla ce
Ġretrie ving
Ġsleep s
Ġtou ch
Ġtou ches
Ġpea k
Ġhers elf
Ġfrie nds
Ġemb race
Ġsilhou ette
Ġroo f
Ġelect ric
Ġmemb ers
Ġboun ce
Ġlist ening
Ġprot est
Ġgymn ast
Ġpir ate
Ġcent er
Ġstud ents
b erman
c ts
d ie
i zed
m in
r ing
t r
Ġ ic
Ġa er
Ġa ss
th day
Ġs al
Ġw e
Ġb ir
an ese
Ġin t
Ġt ell
Ġg es
Ġg ood
Ġg row
Ġh ung
at ure
un ette
Ġst ares
Ġlo ts
ri age
Ġsh ake
Ġrid den
Ġcar riage
ap anese
Ġmo tion
Ġwall s
pe te
Ġdr aw
Ġwh at
Ġbench es
rest ing
Ġperform er
Ġcom ple
Ġcom pete
bb y
Ġag ility
Ġchas ed
Ġbag p
Ġbox er
Ġfish es
Ġleash es
iv id
Ġboo th
Ġbow ing
Ġbre aking
sm iling
Ġpit bull
Ġele ph
ines e
Ġbro die
Ġind ivid
Ġlick s
Ġexp ress
Ġprin t
Ġgar age
Ġprote ctive
Ġtick ling
wh e
Ġsnows uit
Ġinner tube
Ġbead s
Ġbir thday
Ġges ture
c ut
f irst
g ull
i age
Ġ ident
in y
Ġs ings
Ġw as
re nt
er c
ro ad
Ġc ran
le te
Ġm one
Ġt a
Ġdo berman
Ġon line
Ġf le
it al
Ġst uck
om a
Ġbo lder
Ġl ines
Ġj ew
Ġlo c
Ġlo un
Ġro ws
Ġsh a
ab ric
Ġre cor
Ġch ar
Ġch inese
Ġne igh
ent le
Ġsho e
Ġside ways
um ent
Ġca fe
Ġar c
Ġv an
Ġflo ck
Ġsuit ed
Ġskin ny
Ġmar ching
Ġcas ting
Ġpre s
Ġrail road
Ġoverlo ok
bor hood
Ġfol iage
Ġsi lly
Ġcle an
Ġfollow ed
Ġrais ing
Ġsing le
Ġpick ing
Ġcraw ling
Ġtravel ing
Ġnat ural
Ġparas ail
Ġtoss ing
Ġspid erman
Ġdev ice
Ġda ught
Ġinte resting
Ġge ese
snowboard er
Ġmag az
Ġfeed ing
Ġmarking s
Ġpour ing
lah oma
Ġic y
Ġmone y
Ġneigh borhood
b e
b as
c if
d ed
i ally
k y
r id
s uff
in ess
Ġs ou
Ġs im
re s
Ġc al
Ġm ead
Ġm ist
Ġm eet
Ġt ub
Ġt ried
Ġg all
Ġg entle
Ġf abric
lo ck
Ġst range
Ġto i
Ġj apanese
ver ing
Ġsh ade
Ġco vers
Ġbe nds
Ġra g
ent al
Ġhead first
Ġpa le
Ġben eath
Ġsc ales
ra ft
Ġbar ren
Ġtre at
Ġbr unette
Ġcap s
Ġset s
Ġsuff ers
Ġhu man
Ġswims uits
Ġpro du
Ġlif ts
Ġpart ially
Ġattemp t
Ġpl ant
Ġland s
Ġbat man
vent ion
Ġbou nds
Ġglo ve
Ġfr uit
Ġspea ks
Ġwork er
Ġphotograph s
gu y
Ġath lete
Ġgl ided
Ġsli pping
oc ular
Ġteach ers
Ġemer ges
Ġspeak ers
Ġpos ition
Ġbin ocular
Ġexc ited
Ġaut umn
Ġcontro l
Ġbor der
Ġconcer t
vi ew
Ġteamm ate
Ġmost ly
Ġexpress ion
bas ket
Ġmead ow
Ġgall ery
a wn
b it
b aby
f ight
g ers
k en
m ing
w a
x ed
in a
Ġw eather
Ġb ad
Ġo k
Ġo un
an ge
Ġd ep
Ġd ish
Ġm ales
Ġdo t
Ġdo ll
la dy
is ed
Ġh ut
Ġst yle
et ted
Ġl ink
Ġn arrow
Ġlo gs
st ick
st ach
ic ally
se ven
Ġla w
Ġbu ried
Ġbi ll
Ġpo ss
Ġsp ace
Ġe ff
Ġre s
Ġch o
if ic
Ġhead ed
Ġpa w
Ġsl ight
Ġtop s
Ġse co
Ġse ven
Ġflo ra
Ġstri pes
bb le
Ġcap e
Ġmid st
Ġsto ps
hou se
Ġshe er
Ġhou ses
zz ling
Ġfem ales
Ġpol k
iv ers
Ġapp ear
Ġart ist
Ġmon ument
wor ks
Ġbran ches
Ġbro ther
Ġjo y
Ġoffic ers
Ġcir c
Ġcheerlead er
Ġcheerlead ers
Ġgrab s
Ġsilhou etted
Ġadvertis ement
Ġrob e
Ġparticip ate
Ġpony tail
Ġpow er
Ġrefle ction
Ġamid st
Ġdaught er
basket ball
Ġoun ces
Ġseco nd
a ro
a iling
d ress
d irt
f ant
i ther
k id
p r
t i
t ubs
z ing
Ġ z
Ġ es
Ġa ct
in ish
Ġw and
Ġb ay
Ġo ri
Ġp apers
Ġd and
Ġd em
Ġd ump
Ġc ro
ar ter
nd o
is ter
Ġf as
ck ing
Ġst ra
Ġst ill
en ed
Ġl ugg
Ġare na
Ġjump er
Ġpeople s
Ġsh el
Ġsh edding
Ġtr ans
Ġcar ts
Ġbi kin
Ġsp ine
Ġe very
Ġre ar
Ġcl ub
row s
Ġpa cif
ag ed
Ġcamp s
Ġstri ke
Ġfla t
Ġcross ed
Ġbus iness
Ġboard ing
Ġsky line
Ġstair way
Ġex te
Ġex erc
Ġhard est
Ġstar s
Ġret urn
Ġcart whe
Ġharness ed
ition al
co late
Ġcr ying
Ġrollerbla der
Ġmusic al
Ġmusic ians
Ġshi vering
Ġbro ken
Ġbath tubs
Ġcand y
Ġinstrum ent
Ġcountry side
Ġsea gull
Ġparach ut
Ġme x
Ġti ed
Ġwakeboard ing
Ġswor ds
Ġadvertis ing
Ġrob es
Ġrelax ing
Ġapproach ing
Ġleaf y
Ġdrive way
Ġmur ky
Ġwhist le
Ġvar ious
Ġfest ival
Ġsumm er
Ġdim ly
Ġoppon ent
Ġeleph ant
Ġcran e
Ġjew el
Ġsha ved
Ġarc ade
Ġbinocular s
stach e
Ġslight ly
Ġfas hion
Ġstra ight
Ġlugg age
Ġbikin is
Ġpacif ier
a ult
b ic
b ag
c an
i le
i ed
l it
in ing
ing ing
Ġs at
Ġw ee
Ġin fant
Ġc rown
is ion
Ġf re
Ġf at
ir ing
lo r
Ġman e
om p
id s
Ġto ol
Ġto llers
mp s
Ġrun ners
ack s
Ġwater me
el y
st ro
il ar
ad itional
Ġbe ver
Ġup hill
Ġtr aditional
ren ch
Ġe xt
Ġe ither
Ġso ft
Ġca u
Ġca ge
ag es
Ġse c
Ġse eds
ra cing
Ġad m
Ġde er
Ġop er
Ġkick ed
Ġopen s
Ġcan n
umb ling
Ġga zed
Ġfire works
Ġatt ent
Ġfull y
co at
Ġrow boat
Ġele v
Ġkay aks
wor k
sk y
Ġbut ton
Ġdig s
Ġtug ging
Ġme al
Ġstret ch
Ġstret ching
Ġstret ches
Ġdead lock
Ġdro pping
Ġcla d
ho ckey
Ġdust y
Ġinter vention
Ġinc l
Ġpig tail
Ġmur at
Ġna vy
Ġbel ly
Ġspark les
Ġathlet ic
Ġvis ible
Ġhung er
Ġloun ge
res ted
Ġgentle man
Ġcho colate
Ġwaterme lo
a red
b ars
c rowd
c apped
e er
g ress
o ise
p ical
u ding
u als
u bby
er ry
ro nic
Ġc ell
Ġm in
Ġm all
Ġt ar
Ġt uck
Ġg al
nd or
is ting
Ġwi g
Ġr ings
or ing
Ġl ane
mp ly
el ion
Ġlo ss
Ġsnow capped
Ġbl ur
am b
Ġrid ge
Ġle op
Ġbe e
se um
Ġla unched
Ġrock et
Ġas ce
Ġwa ist
Ġso aked
Ġli kes
Ġgo wn
pp er
sh ed
Ġpu ff
Ġsl ip
Ġmu seum
Ġcamp ing
Ġcom m
Ġbar n
Ġdan cer
Ġbal ance
Ġhorse back
Ġopen ing
Ġhu sky
Ġlight ing
Ġnight time
Ġpoin ted
Ġfire tr
Ġwindow s
Ġpush ed
Ġnumb ered
Ġwor ks
Ġdoor s
Ġsqu ire
Ġqu arter
Ġtattoo ed
Ġap art
Ġoffic ial
Ġcard s
Ġpost er
Ġpatch es
Ġgl iding
Ġmulti ple
Ġelect ronic
Ġapproach es
Ġtrot ting
Ġdesce nding
Ġhandle bars
Ġflam es
Ġcontain er
Ġped estri
grey hou
Ġrollersk ating
Ġsnowmo bile
Ġenclo sed
Ġaer ial
Ġgrow ling
Ġdraw ing
Ġcomple te
Ġindivid uals
Ġgesture s
Ġident ical
suff er
Ġsim ilar
Ġtoi let
Ġbill board
Ġes c
Ġori ental
Ġdand elion
Ġmane u
Ġcann on
Ġloss es
Ġleop ard
Ġfiretr uck
c ted
c ast
e en
g ling
i pe
i hood
l s
l ph
l ines
m y
p ter
u nd
v ig
w ers
Ġ vert
Ġs on
Ġs ke
Ġs elling
Ġs que
Ġw eed
Ġb ab
an ts
Ġp in
Ġd u
Ġc ome
Ġc ru
Ġc us
Ġc alm
Ġm el
Ġdo n
Ġdo lph
la bor
Ġf ellow
Ġf urn
at o
Ġr ally
es ma
ld o
Ġst are
Ġto ur
or k
et s
on str
Ġy awn
Ġn ice
Ġlo ve
Ġro d
Ġfro lic
Ġsh r
bo x
Ġover h
ad or
Ġla br
Ġsp ons
Ġre p
Ġoff ice
Ġwa ges
Ġfa cial
Ġgo at
Ġhead dress
ward s
Ġhel ico
Ġfl ute
Ġuniform ed
Ġflo ppy
Ġpath way
Ġri ghts
Ġbar ks
Ġdri zzling
ect ive
Ġcollar s
Ġfish erman
ation s
Ġbrid esma
Ġhard ihood
Ġcow s
Ġve ndor
Ġdist ant
Ġrailing s
Ġboo ks
Ġpass en
Ġsi mply
Ġgraffiti ed
Ġspor ting
Ġpack ed
Ġlow er
Ġbou nd
Ġcr ack
Ġmark er
Ġstr ugg
ven ing
Ġfr am
Ġbut ter
Ġunderw ear
Ġtro pical
Ġchain s
Ġshoo ts
Ġcol umn
Ġhea v
Ġcla pping
Ġribb ons
Ġrelax es
Ġitem s
Ġmemb er
Ġna vig
Ġbur ning
Ġcoo king
Ġcolle ge
Ġtrash can
Ġbul ldo
Ġgymnast ics
Ġok lahoma
Ġlaw ton
Ġeff ective
Ġdem onstr
Ġtrans p
Ġweed s
Ġbab ies
Ġdolph in
Ġhelico pter
b ird
c ers
f ts
f old
g o
i ent
j ured
m ountain
n am
t urn
u la
u rope
v il
Ġw ade
Ġin jured
Ġp y
Ġd ive
Ġt iny
Ġh allow
un ching
Ġst all
Ġst udi
en se
Ġy ork
el led
Ġgr as
Ġan na
Ġsnow ban
Ġbl ind
Ġsh are
ur ity
st on
st ones
am s
Ġover head
Ġover cast
Ġbe long
Ġback stro
Ġcar pe
Ġla shed
Ġpar alle
Ġstre tched
Ġsp ike
Ġe labor
Ġe urope
Ġre g
ran t
Ġmountain ous
Ġmo ss
Ġhand ed
Ġsun light
Ġsand bag
Ġpa u
Ġpa rent
Ġtrick les
Ġar ch
Ġun ivers
Ġfo ld
Ġfo lding
Ġarm y
Ġpur s
Ġsc ore
qu oise
Ġthem e
Ġbig ger
Ġmar sh
Ġboard s
Ġcas ts
Ġfire place
Ġpro gress
Ġtrain er
Ġbear ing
Ġbott les
Ġstar t
zz led
Ġsub mer
Ġbow ed
Ġbre ad
Ġsn ake
Ġru sh
Ġspray s
Ġpit ching
Ġblock ing
Ġste er
whi le
Ġmotorcycl ists
sk ies
Ġsay ing
Ġpick ed
spe ct
Ġpost s
Ġwakeboard er
Ġwatersk ier
Ġexp lo
Ġpat tered
Ġyou th
Ġnat ive
Ġparas ailing
Ġmulticolo r
Ġroo t
wh ere
Ġinc line
Ġboun ty
Ġobser ves
Ġdesce nds
Ġchick en
Ġscr atch
Ġbagp ip
Ġchar act
bble stones
Ġmex ican
Ġwee ks
Ġbever age
Ġincl uding
Ġgal lo
Ġsque e
Ġcus hion
Ġbridesma ids
Ġheav ily
Ġbulldo g
Ġhallow een
Ġstudi o
Ġsnowban ks
Ġblind fold
Ġcarpe ted
Ġparalle l
Ġelabor ate
Ġsubmer ged
a c
b ul
c raft
f l
f or
f low
g an
k ins
l ig
m u
n umb
o red
t al
v ision
w ater
y on
z a
Ġa v
Ġs ort
Ġb ent
Ġb ears
an nel
Ġp as
ro p
Ġc ra
Ġc ats
Ġc ere
hi bit
Ġm ind
Ġm iss
Ġm ix
Ġm unching
Ġt omp
Ġg low
Ġg ive
Ġf ea
Ġf inish
Ġf iring
Ġh our
it ure
Ġwith in
Ġst orm
Ġst ones
Ġbo ne
te en
Ġl an
ple ss
itt er
Ġth ings
Ġwater craft
Ġn ur
Ġn ap
Ġlo ad
Ġro ll
Ġro lled
ri al
ri ers
ri ous
Ġsh ed
Ġho sp
st y
Ġout c
Ġco b
Ġco bblestones
Ġu nd
Ġfi lling
Ġgre at
Ġle ar
il t
il er
il la
Ġtr ap
Ġcar ried
Ġbu mp
Ġpo p
Ġpo pping
Ġpo sed
Ġsp ir
Ġe nds
Ġmou se
Ġjumps uit
if e
if t
Ġsho ps
Ġli e
Ġli br
Ġside lines
Ġun cut
Ġfl annel
Ġmu g
Ġfen ces
Ġtra itor
Ġsnowboard s
Ġflo od
Ġpi an
Ġbar riers
Ġdan gling
Ġtre ad
lash es
ph y
Ġdark ened
Ġfla pping
Ġam bul
Ġno ses
Ġdri ed
Ġdri ven
Ġhe els
Ġsto ve
Ġcan al
Ġcan yon
Ġbackpack er
Ġbox es
tt ers
Ġex hibit
Ġlif ting
Ġlif ted
vel y
Ġpl ank
Ġpl ush
Ġnumb ers
Ġbat t
Ġal ike
us ed
Ġart ific
att le
pla y
Ġretrie ve
cor ding
Ġsing er
mo tor
Ġfore front
Ġpad s
Ġtu xed
let on
Ġown ers
Ġcheer ing
Ġbottom s
Ġtro phy
Ġcheck ing
Ġtur key
Ġtur quoise
Ġti le
so ccer
Ġsee king
Ġmil k
Ġac cording
Ġdro ps
Ġclown s
Ġpractic es
Ġty rant
Ġwarm ly
blo nde
ident ial
Ġpen za
Ġtight rope
Ġjud ges
Ġrece i
Ġpot ato
Ġexam ine
Ġkeep s
Ġchick ens
ath on
Ġpres ent
Ġz ip
Ġshel ter
Ġevery where
Ġreturn s
Ġoper ating
Ġattent ion
Ġtar get
Ġtuck ing
Ġblur red
Ġvert ical
Ġske leton
Ġfurn iture
Ġtransp ort
turn ed
Ġbelong ings
Ġbackstro ke
Ġeurope an
Ġpau ses
Ġunivers ity
Ġtomp kins
Ġfea thered
Ġhour s
Ġhosp ital
Ġlibr ary
Ġambul ance
Ġartific ial
Ġtuxed os
a la
b at
b aker
c ar
c ou
d ish
d rop
f i
i led
j ust
l m
l er
m at
n ight
p y
r am
s ke
t en
t ers
v ie
w k
z es
Ġ rou
Ġs om
Ġs ister
Ġw ashing
Ġb room
Ġb itten
re me
Ġp ou
Ġp ress
Ġd y
Ġd ach
Ġthe ater
Ġc ry
Ġc lashes
Ġm i
Ġm att
Ġt iss
Ġf e
al d
al t
Ġh all
at ive
un k
un ning
ir rel
it ch
Ġbo ston
or man
or ange
Ġpla ced
Ġj ig
Ġy elling
Ġju ice
Ġn ina
Ġred dish
oo p
Ġlo cked
Ġsh alt
ain ing
ain ed
Ġfi lm
Ġle ag
Ġup on
Ġback drop
Ġtr ump
ay ing
Ġk ill
Ġe ight
Ġe vening
Ġas king
Ġre mo
Ġre lig
Ġch in
Ġch at
Ġch ink
Ġch op
Ġskateboard ers
Ġso ld
Ġso cks
Ġcam e
ul ts
Ġmo bile
Ġmo vie
les co
Ġca re
Ġdr ain
Ġhill y
Ġar rested
tor ted
Ġse ash
Ġmu stache
Ġfen cing
Ġv illa
Ġperf orman
Ġob sc
ra it
Ġte lesco
Ġhigh way
Ġdan cers
Ġad just
Ġbal let
Ġmar ble
Ġguitar ist
Ġspr ing
Ġhou nd
Ġhard ing
Ġey ed
Ġobstacle s
Ġscar s
sc ular
Ġtele vision
Ġor der
Ġsub urban
Ġbre ed
Ġrain coat
Ġrais e
Ġblock ed
Ġsqu irrel
Ġcu ps
Ġsa x
Ġsupp ort
Ġfore head
Ġscen ery
Ġpad ded
Ġfet ched
Ġpet ty
ust rial
Ġwr itten
Ġbea k
Ġshi ps
Ġind ustrial
Ġplat es
Ġdrum mer
Ġamong st
Ġvideo t
Ġpier cing
Ġcheck s
Ġcolor ing
Ġpract ice
Ġti led
Ġslee ve
Ġslee pless
Ġbowl s
Ġchi p
Ġdrag ging
Ġkn ife
Ġtravel s
Ġgar b
Ġguard ing
Ġdirection s
Ġsail boat
Ġtoss ed
Ġparticip ating
Ġskir ted
Ġtick et
Ġemer ging
Ġbel t
Ġspid er
Ġport rait
Ġhorizon tal
Ġpe ers
Ġstrap ped
Ġjud ging
Ġcontain ing
Ġcast le
Ġtoo th
Ġcelebr ating
Ġprete nding
Ġwindsurf er
Ġaim ing
min ton
Ġta x
Ġmagaz ine
Ġmagaz ines
fight er
Ġbad minton
stick s
pr ised
Ġexte nded
Ġfre sh
Ġsec urity
Ġadm ire
Ġcomm un
Ġesc ala
Ġyawn ing
Ġlabr ador
Ġspons ored
Ġfold ed
Ġbagpip es
Ġcharact ers
mu zzled
numb er
Ġpian o
motor c
Ġtransport ation
cou ple
ske wers
Ġdach sh
Ġtiss ue
Ġjig ger
Ġtrump et
Ġrelig ious
Ġchop sticks
Ġseash ore
Ġperforman ce
Ġtelesco pe
Ġescala tor
b ig
c l
d ark
e lding
e ight
h a
i ian
i ghts
i vely
m on
o nd
p ain
r ay
r ings
u p
v ation
w ing
w et
Ġs ne
Ġs ash
Ġs elf
Ġs acks
Ġw ise
Ġb race
Ġo vers
Ġp ri
Ġp ries
Ġd itch
Ġc ab
Ġc ries
Ġm or
Ġm ain
Ġm aro
Ġt ed
Ġt im
Ġt ape
Ġt apped
Ġg en
Ġg as
Ġg ains
Ġdo ming
Ġf ind
Ġwi ll
Ġr ack
Ġr if
es ts
om ing
te l
or s
or y
or se
or ts
Ġl unch
Ġl ush
Ġj ag
Ġj okes
Ġth re
Ġth ick
Ġwater y
ard s
ce pt
oo th
Ġgr an
Ġro tt
Ġro me
Ġsh aring
Ġho ping
Ġho tel
bo dy
Ġco p
Ġco pper
Ġu se
Ġgre et
Ġle t
ad ults
Ġback lit
ab s
Ġk no
Ġk itten
Ġpar is
Ġstre wn
Ġsp an
Ġsp ec
Ġe g
Ġre cent
Ġch alle
Ġch ubby
Ġcl ing
Ġne ed
Ġsu per
Ġsu cking
Ġmo d
Ġhand ing
era ct
um er
pp ers
sh ine
Ġsur prised
Ġsun shine
Ġca ut
Ġhel lo
ag ing
Ġar ab
Ġun us
Ġse es
Ġse attle
Ġfo c
Ġmu ch
Ġmu scular
Ġv ine
Ġhor ns
Ġsnowboard ers
Ġpur ses
Ġha wa
Ġri val
Ġde c
ug gle
Ġcouple s
Ġmar ch
Ġmar athon
Ġbox ers
Ġstep ping
ub le
Ġsky sc
Ġen c
Ġtrain s
we iler
Ġclothe d
Ġstar ts
Ġstar ring
Ġrail way
Ġstat ues
Ġve get
Ġwor ds
Ġstore s
Ġor nam
Ġdis k
Ġdis torted
mm ed
jo ckey
Ġsn ack
ie val
Ġcle aring
Ġru sty
Ġpaper work
bi ke
Ġcu rious
Ġmon itor
Ġmon ster
app y
Ġcrou ch
Ġear rings
Ġsa iling
Ġcre ating
Ġmusic ian
Ġkay akers
Ġstr uggle
Ġleg ged
Ġcont est
Ġpet s
Ġwr ist
Ġbut t
Ġmarket place
Ġsad dle
Ġcut ting
Ġfair y
Ġfair ground
Ġmed als
Ġmed ieval
gre en
Ġdrag on
Ġprin ting
Ġprin ted
Ġemb racing
Ġent er
Ġpat tern
Ġser ve
Ġser ious
Ġtracks uit
Ġeye b
Ġinter view
Ġmat ter
Ġce iling
Ġlist ens
Ġnew ton
Ġrefle cting
Ġpos ted
Ġcoo k
Ġstrap s
Ġbla ine
ang led
Ġexam ining
Ġapple s
Ġfeather s
Ġper ched
Ġhear t
Ġass ist
Ġint eract
Ġbagp ipe
Ġloc ated
Ġclean ing
rid a
Ġmeet ing
Ġres idential
Ġcirc uit
Ġexerc ise
Ġcartwhe el
Ġseagull s
Ġfashion ed
Ġcau sing
Ġwatermelo n
Ġasce nding
Ġquarter back
Ġpedestri ans
Ġtour ist
Ġoverh ung
Ġpassen gers
Ġcrack ed
Ġstrugg les
Ġpy ram
Ġpurs u
Ġgallo ping
Ġav o
teen ager
Ġoutc ro
Ġflood ed
Ġleag ue
Ġvilla ge
Ġsax o
Ġsne ering
Ġwise man
Ġbrace lets
Ġmaro on
Ġted dy
Ġdoming o
Ġjag ged
Ġrecent ly
Ġchalle ng
Ġunus ual
Ġskysc rap
Ġpyram id
a f
b l
b ell
b ones
b ert
b ase
b arrow
c c
c ess
c ycling
f ly
f amily
i th
i lor
k le
l ish
m ar
m ade
m ony
o ps
p ro
s on
s ure
s ion
u str
v as
v ol
Ġ if
in ts
Ġs ear
Ġs ale
Ġs allow
Ġs ell
Ġb ra
Ġo x
Ġo ar
Ġo cc
the d
Ġin vol
Ġd i
Ġd um
Ġc able
Ġm ap
Ġm ater
Ġt est
Ġt rench
Ġg la
Ġon com
is er
is es
Ġf er
Ġf ling
Ġf ist
Ġf rench
lo ts
Ġst a
rou s
and on
as ium
ch eer
Ġplay ful
Ġj ar
irl ing
Ġy ears
Ġhi des
no wn
ple d
ple ts
itt y
Ġlo d
ss ies
Ġan kle
Ġsh erman
Ġsh aw
ur ring
Ġho pping
Ġsm elling
st ers
st ore
Ġco nd
ic tor
Ġu l
Ġsw a
Ġover night
Ġle tters
se en
Ġup ward
Ġtr ay
Ġcar ving
Ġcar rier
Ġla mp
ap es
Ġher o
Ġbu g
Ġbu ggy
Ġk itty
Ġpo king
Ġe vil
Ġre b
Ġre sc
Ġre ally
Ġne eds
ran ce
Ġso aking
Ġso aring
Ġmo on
ves t
ort ness
sh ortness
Ġpu s
Ġpa il
Ġhel l
Ġun f
Ġun ion
Ġun seen
Ġblo ss
Ġi ll
Ġse ating
Ġse em
Ġhair cut
Ġbasket s
Ġv ault
Ġv ictor
Ġtra iling
Ġtra vers
Ġpur ch
Ġsit e
Ġflo rida
ra ction
Ġcon gre
are nt
Ġbar b
Ġstri king
Ġbes et
ash ed
Ġcan ning
Ġbackpack ing
Ġcliff s
Ġcross bones
tt es
Ġwheel barrow
Ġbrid le
Ġbed s
Ġab le
Ġab andon
Ġban ners
Ġpush kin
Ġcomp an
ud e
Ġvi z
Ġrail s
Ġcor ps
Ġtong ues
Ġcur rent
Ġhar bor
Ġhal ted
Ġlip stick
Ġspo on
Ġneck ed
Ġhorses ho
Ġsn ap
Ġslo pes
Ġform ally
Ġcu rt
Ġbook store
Ġcigare ttes
Ġgather s
Ġbou quet
Ġcr ash
Ġcr umbling
Ġpie ces
band s
Ġhome made
Ġshi pping
Ġcowboy s
Ġdig ital
Ġown ing
Ġpea ks
Ġspeed ing
Ġrubb ing
Ġshad es
Ġlin ing
Ġpier ced
Ġdire ct
Ġpost ers
Ġbeg ging
Ġbeg inning
Ġmotorbi kes
Ġdro plets
Ġmach ines
Ġwrit es
Ġent ert
Ġent rance
Ġpat ting
ens ive
Ġcomput ers
Ġprote ct
Ġtw irling
Ġparticip ates
Ġteach ing
Ġairp ort
Ġobser ving
Ġgymn asium
Ġspark led
Ġattack ing
Ġdefe nd
Ġdefe ated
Ġfest ive
Ġathlet es
com p
Ġtag s
Ġprete nd
Ġenclo sure
Ġsal vation
Ġrecor d
Ġparasail s
Ġsou nds
Ġrag ged
Ġexpression s
Ġdoll ar
Ġposs ession
Ġres ort
Ġparachut ing
Ġelev ator
Ġcell s
Ġpuff y
greyhou nds
Ġmel ting
Ġfram ed
Ġbutter fly
Ġparent s
Ġcere mony
Ġsom ers
Ġsold ier
Ġcommun ity
Ġdachsh und
Ġtim es
Ġspan ish
Ġspec ial
Ġeg gs
Ġhawa iian
Ġoutcro pping
Ġchalleng ing
bl ue
Ġmater ial
Ġoncom ing
cheer lead
Ġresc ue
Ġcongre g
a el
a way
b a
b ru
c ier
i et
i od
i ence
i que
l id
n aw
o f
o t
o ping
p tion
s anta
y ellow
y ond
Ġ el
Ġa wa
Ġs en
Ġs ab
Ġs ong
Ġb ark
Ġb urn
Ġb rows
Ġo dd
Ġin st
Ġin se
Ġin vest
er am
Ġd er
Ġd unning
ro ller
Ġc all
Ġc ri
Ġc ycle
Ġc raft
hi c
hi ft
Ġm ing
Ġt it
Ġt umbling
Ġg oo
Ġg rown
Ġg ree
Ġg naw
Ġf rown
Ġf lash
Ġf erry
Ġh um
Ġh amb
un gs
Ġwi ped
Ġwi lder
Ġr ubs
Ġst out
Ġst oop
en ian
Ġwhi sp
Ġbo dies
Ġto e
Ġto urn
et er
ch an
ch ael
Ġl ime
Ġl ungs
Ġplay house
no on
Ġwater ing
Ġwater way
ri ght
Ġan g
Ġan ge
Ġsh ines
Ġsh iny
Ġsh ining
ur gers
Ġsm ooth
st al
st om
bo ats
ic es
Ġu s
Ġu sed
ll ar
Ġfi x
am ing
am es
am ent
Ġsw abs
to ller
Ġle ns
il led
Ġloo ters
Ġbe es
Ġbe yond
Ġup per
Ġla ws
ap s
ap pled
Ġfield s
Ġrock ing
Ġbu y
Ġbu dd
Ġbu ilt
Ġgreen house
Ġk ind
Ġk ang
Ġra fts
ren ched
Ġpar ag
Ġpo or
Ġsp urring
Ġe m
Ġmou stache
Ġch a
Ġch ange
Ġoff ering
Ġmountain eer
Ġjack son
Ġcam cor
Ġcam eram
Ġmo sc
Ġli qu
Ġhand ful
Ġside car
Ġfa v
Ġgo ats
Ġgo ndo
ig o
Ġsun ba
Ġclo ses
Ġclo sel
Ġsl ing
Ġun ique
Ġse nding
Ġse wing
Ġgu ide
Ġfo g
Ġhair y
Ġarm enian
Ġmotor ized
Ġsc ant
Ġcon fet
Ġcon front
Ġte mp
Ġpi ps
Ġpi llar
Ġsign al
ish es
Ġstri pped
Ġbr ains
Ġno te
Ġsto pped
Ġwho se
Ġfight er
Ġcan vas
Ġmar ks
ok lahoma
Ġafter noon
tt y
Ġga zing
Ġsky d
Ġbrid al
Ġbed room
Ġfire s
Ġfire fighter
Ġpre tty
Ġsurfboard er
Ġex cept
Ġtrail s
Ġche ers
Ġban ks
Ġwin ner
Ġwor ld
Ġcor ds
Ġdes ign
Ġmakes hift
Ġamer ic
Ġsi ze
Ġbre aks
Ġequ estri
Ġprep are
Ġcle ver
Ġcle ared
Ġswe at
Ġrain y
Ġwaterfall s
Ġcano py
Ġjes us
Ġcu stom
Ġmus cle
Ġear ning
Ġear ly
Ġear phones
Ġcre ature
Ġqu and
Ġstr ings
Ġpaint ball
Ġfr is
Ġspot light
Ġmer ch
Ġshop man
Ġstro ll
Ġjo in
Ġcolor fully
Ġpul ley
Ġclass ic
Ġbowl er
Ġnewsp apers
ĠĠ Ġ
Ġdecor ative
Ġformation s
Ġscre ams
Ġac ce
Ġguard s
Ġprof ile
Ġser ies
Ġnat ure
Ġstraw b
Ġsli pped
iz ing
Ġsail s
Ġtw isting
Ġeas ter
ec ts
oc ide
Ġpig my
Ġtri mmed
Ġtail s
Ġchee ks
Ġpow der
Ġdefe nding
Ġflam ing
Ġsumm it
Ġcelebr ate
com es
Ġwindsurf ing
Ġper iod
Ġconvers ation
Ġaer o
Ġindivid ual
Ġfle x
Ġloc ation
Ġsou nd
Ġcal f
Ġcal led
Ġmist y
Ġposs ible
Ġcirc ular
aro o
Ġdump s
Ġcartwhe els
Ġtool s
Ġwatermelo ns
Ġcell phones
Ġsquire s
Ġapart ment
greyhou nd
Ġmaneu ver
Ġmaneu vers
Ġdu kes
Ġshr ine
Ġshr ub
Ġnavig ators
ula tion
spect ators
Ġexplo sion
Ġblindfold ed
Ġpas ture
Ġlan tern
Ġspir it
Ġbatt le
Ġpresent ation
fi eld
mat ic
Ġdy ed
Ġmi chael
Ġcare fully
Ġmor ning
Ġgen ocide
Ġgran ulation
Ġrott weiler
Ġlet ter
umer ous
Ġcaut ion
Ġeyeb rows
Ġpursu ed
Ġskyscrap er
Ġgla cier
Ġswa mps
Ġreb els
Ġcurt ain
cheerlead ers
Ġcongreg ated
bru sh
Ġinst ruct
Ġinse ct
Ġinvest ig
roller bla
Ġtit us
Ġgoo se
Ġgree ley
Ġgnaw ing
Ġhamb urgers
Ġwilder ness
Ġtourn ament
Ġkang aroo
Ġcamcor der
Ġcameram an
Ġmosc ow
Ġliqu id
Ġgondo la
Ġclosel y
Ġscant ily
Ġconfet ti
Ġequestri an
a v
b ear
b ea
b akers
b ster
b ald
c od
c yclists
c ient
d ers
d ist
d uring
e f
f em
f rie
g ant
h ard
h ake
h appy
i or
i ps
i ature
j ec
l ights
m ed
n et
n aked
n hard
o ven
p o
p ark
p ted
p ol
r ug
r ise
s a
s w
s hi
s at
s men
t w
t es
t ch
t ation
u is
v ag
w ed
w ith
y l
z ag
Ġ ir
Ġ lack
Ġ que
Ġa ro
Ġa id
Ġa mp
Ġa do
Ġa ward
Ġa str
Ġa ctive
ing y
Ġs y
Ġs in
Ġs ep
Ġs ight
Ġs led
Ġw oven
Ġb ree
Ġb ell
Ġb eaded
Ġo ly
the y
an ging
Ġin spe
re r
er bell
Ġp oo
Ġp ean
Ġp unched
Ġp aying
Ġd ad
Ġd renched
ar a
Ġm om
Ġm am
Ġm ast
Ġm ats
Ġt il
Ġt ink
Ġt ies
Ġt umb
Ġg ames
Ġdo ts
Ġdo uble
is on
Ġf in
Ġf ell
ck er
ck led
al ian
Ġh ur
Ġh ad
at ically
Ġis ra
Ġis land
un t
it ing
it ish
it ive
Ġwi z
Ġwi elding
Ġwi cker
Ġr ab
Ġr ude
es ting
Ġst ay
Ġst ead
Ġst eam
Ġst ubby
Ġst ained
Ġst ory
om s
Ġbo a
Ġbo ws
Ġto r
Ġto ne
and ise
or ted
as es
Ġpla cing
Ġpla ces
Ġl im
Ġl itter
irl ift
Ġhi ps
Ġrun away
Ġth an
ou nd
ou se
ou ts
Ġwater front
Ġn ip
Ġn ail
Ġn umerous
Ġlo ll
Ġgr im
ut s
Ġro ds
ri ger
Ġbrown ish
Ġan t
Ġan cient
Ġbl uff
Ġfro g
Ġblue j
Ġho ps
Ġco al
Ġco tt
Ġco quet
im mer
Ġdown to
ke ys
Ġover coat
Ġle ase
il ight
Ġbe at
Ġbe ating
Ġbe comes
Ġup ra
Ġup set
ks hake
Ġla id
Ġla te
Ġla mb
ap ing
Ġher d
Ġpar lor
Ġnear ly
Ġstre aks
Ġpo cket
Ġsp on
Ġsp lit
Ġmou thed
Ġfor t
Ġre c
Ġre al
Ġcl ut
Ġcl inging
Ġsome body
Ġoff ers
Ġso ap
Ġso cial
ent ly
Ġmo re
Ġmo der
Ġli on
Ġli gh
Ġli pping
Ġhand ic
Ġclimb ed
um e
ct ure
Ġhead ing
Ġpu mp
Ġpu mps
Ġcrowd s
Ġfoot pr
Ġfootball ers
Ġdr a
Ġdr am
Ġcolo n
Ġwh en
Ġwh om
Ġar ched
Ġun turned
Ġun happy
ging s
Ġten s
Ġse al
Ġgu iding
Ġfo lly
Ġv en
Ġv ac
Ġroad way
Ġsc o
ne cted
Ġunder ground
Ġha wk
Ġflo tation
ra ces
ra vag
Ġcom bat
Ġwalk er
Ġcon f
Ġcon s
Ġcon nected
Ġte thered
Ġhigh er
Ġad or
Ġstri ps
Ġbr inging
Ġlook ed
Ġlook out
Ġflow ing
Ġskin s
Ġcap t
Ġdri ft
Ġdri lling
Ġhe ight
Ġimp act
Ġwind ing
Ġcan e
Ġcan ad
Ġmar x
Ġba les
ation al
Ġbrick s
Ġcas ual
Ġbrid ges
Ġwait er
Ġobj ects
Ġfloor s
Ġpre y
Ġen er
Ġsurfboard s
Ġall ies
Ġpart ly
Ġcow girl
Ġroom s
Ġatt ract
Ġbat on
Ġwor n
Ġcor ndo
Ġreach ed
Ġor gan
Ġal ert
Ġal sat
Ġkne el
Ġbre eds
Ġbre ath
Ġcompet itive
ie ce
Ġru ss
Ġcig ars
Ġview er
ous ine
Ġmon keys
Ġste el
co tch
Ġstructure s
Ġinfla ted
Ġele gant
Ġear th
Ġsa ilor
Ġqu iet
Ġleg gings
Ġfore man
Ġcont ents
Ġcover ings
Ġround s
Ġbro ad
Ġdispla ying
Ġdispla ys
Ġemp ire
Ġcand le
Ġclear s
stre et
Ġstro ng
Ġme an
Ġme chan
Ġpainting s
Ġti ps
Ġti ara
Ġwakeboard s
Ġhoo k
Ġwire s
Ġmil kshake
Ġscre aming
Ġshadow s
Ġac c
Ġac ting
Ġac comp
Ġent ering
Ġgar ter
Ġneckla ces
Ġref riger
Ġcheerlead ing
Ġwrap ping
Ġprote ction
Ġtw ig
Ġtw ilight
ec y
Ġdin ing
Ġteach er
Ġbon net
Ġleaf lets
Ġsum s
Ġtri m
Ġtri p
Ġnew ly
Ġobser ve
Ġobser ved
Ġgroom smen
Ġmass age
Ġmass ive
Ġdev il
Ġspark ling
Ġsod ium
Ġpir ates
Ġinte rested
Ġge iser
Ġpair s
Ġsheet s
Ġrece iving
Ġrece ption
Ġalley way
Ġconcer ned
cent r
Ġprete nds
Ġwindsurf s
Ġaim s
Ġstool s
Ġscr uff
Ġconvers e
Ġconvers ing
Ġeng ine
Ġoppon ents
Ġint ently
Ġbooth s
Ġfle ecy
Ġpres ents
be en
Ġprodu ct
Ġprodu cts
Ġdep e
Ġdep ic
inish ed
Ġcro cod
Ġexte nds
Ġexerc ises
Ġparachut es
Ġfat ig
Ġext reme
Ġext ravag
Ġmin iature
Ġasce nd
Ġpedestri an
Ġrep elling
Ġfram es
Ġcolumn s
Ġdemonstr ating
Ġarch way
Ġscratch ing
Ġscratch es
Ġsquee zing
flow ers
Ġmiss es
Ġload ing
Ġund ress
Ġlear ning
play er
play ers
Ġrecei ver
Ġrecei ves
ten nis
Ġwashing ton
Ġcry stal
Ġmatt ers
Ġfe ature
Ġfilm s
Ġchat ting
Ġobsc ured
Ġadjust ing
Ġfresh ly
up ied
Ġovers ized
Ġpries t
Ġthre w
Ġneed le
Ġmod el
Ġfoc us
Ġdec line
Ġenc our
Ġinterview s
Ġavo id
Ġsaxo phone
base ball
Ġshaw l
Ġunf inished
Ġvictor y
Ġtravers ed
Ġabandon ed
Ġdefend ers
Ġsomers ault
Ġsen ate
Ġsab er
Ġder by
Ġhum ming
Ġange ls
Ġcha irlift
Ġfav or
Ġmerch andise
Ġstrawb erry
Ġlantern s
Ġinstruct or
Ġinvestig ate
bear ded
bea utiful
dist ant
fem ale
jec ted
pol ice
rug by
sw immer
Ġir ish
Ġaro matic
Ġsep ar
Ġsled ge
Ġoly mp
Ġinspe cting
Ġpoo h
Ġpean uts
Ġmom ent
Ġmam ma
Ġtink erbell
Ġisra el
Ġlim ousine
Ġnail s
Ġloll ip
Ġhops cotch
Ġdownto wn
Ġupra ised
Ġmoder n
Ġfootpr ints
Ġattract ive
Ġcorndo gs
Ġalsat ian
Ġaccomp an
Ġrefriger ator
Ġcrocod ile
Ġextravag ant
a cts
b us
b ank
c on
c am
c ow
e ve
e xt
f oo
g erman
g gan
g ray
h e
h orse
i ers
i ped
i ast
k nown
m il
m us
p ic
p ipe
r un
s chool
t im
t our
t ine
t ry
u ge
u ss
u ted
u ces
u ally
v ar
v et
v ine
w l
w uits
z y
Ġ id
Ġ king
Ġ ut
Ġ est
Ġ key
Ġa is
Ġa ud
Ġa wards
Ġa wk
Ġa ustr
in as
in ter
th us
th nic
th ouse
Ġs lack
Ġs ink
Ġs our
Ġs aw
Ġw it
Ġw ool
Ġw est
Ġw ol
Ġw ere
Ġw ec
Ġw ashed
Ġw ishes
Ġb er
Ġb ass
Ġb row
Ġb amb
an ces
Ġin spect
re cked
er men
er inas
Ġp ers
Ġp omp
Ġd el
Ġd iv
Ġd eter
Ġd appled
Ġd ingy
Ġc ash
hi re
ar f
ar m
ar an
ar ks
ar ma
Ġm es
Ġm issing
Ġt ea
Ġt ide
Ġt ap
Ġg ates
Ġg ho
Ġg ift
Ġg igo
Ġdo nt
Ġf al
Ġf it
Ġf ad
Ġh ack
Ġh am
at tered
un e
it ical
Ġwi gs
Ġwi fe
lo oking
Ġr ay
Ġr ick
Ġr um
Ġr att
Ġr ise
Ġr ite
es ter
es ted
Ġst ir
en ger
Ġman ne
Ġman ned
Ġman ured
Ġbo lding
wo od
id dle
all ing
Ġto bo
rou d
te in
te ad
or th
ch nic
Ġl uck
on lookers
Ġy ell
Ġwhite water
Ġhi p
red s
Ġblack top
ple s
Ġstand ard
Ġth atch
Ġju g
el vet
Ġlo bby
Ġlo cking
Ġlo uis
Ġgr ad
Ġgr inning
ut y
ther s
Ġro t
Ġro man
Ġan gle
Ġan ti
rt le
Ġsh ut
Ġsh ine
Ġsh ell
Ġsh apes
ur ning
Ġho pes
st age
st yle
st ume
Ġco ast
ic ians
ll ide
ke ep
Ġball erinas
Ġfi le
Ġfi ghts
Ġsk ate
Ġsw ung
ve lo
ve nder
Ġover turned
Ġle cture
Ġloo p
ad s
Ġbe c
Ġup wards
Ġperson s
Ġback ed
Ġcar go
Ġla unch
Ġla vender
ab lish
Ġbu ff
Ġgreen ish
Ġra vine
Ġpar a
Ġstre aked
Ġpo em
Ġsp i
Ġsp are
Ġsp ee
Ġsp arks
air ie
Ġe ins
Ġe jected
Ġe thnic
Ġre ck
Ġre ve
Ġre qu
Ġre cre
Ġre eds
Ġre view
ind er
Ġch ina
Ġch aps
Ġch ester
Ġdress er
Ġsu nd
Ġsu ndo
ul f
Ġsho ts
Ġli bert
Ġfa iling
Ġfa uces
pp et
do wn
Ġpu ppet
ig ator
ion s
Ġsun rise
Ġbui ld
Ġfoot fall
Ġdr awn
Ġface pain
Ġwh ale
Ġwh arf
Ġar row
Ġun ited
Ġun ison
Ġun known
tor s
Ġhair style
Ġmu st
Ġmu ster
Ġv ast
Ġv elvet
Ġroad side
Ġcom for
qu ins
em n
em ents
Ġwalk ed
Ġcon temp
Ġcon centr
Ġpi les
Ġpi led
Ġbar ing
Ġbar ric
ped estri
Ġad d
Ġde f
Ġbr and
Ġbr ings
Ġbr itish
ant age
Ġsuit case
Ġlea ve
Ġph arma
Ġhan na
Ġriver bank
Ġam used
Ġcoll iding
boy ant
Ġno vel
Ġno ble
Ġno du
Ġcap tors
Ġsto ck
Ġkick box
Ġwind y
Ġcan on
Ġmar y
Ġmar ches
Ġba red
tt ish
Ġhu ssies
Ġnight cl
Ġcas ually
Ġshow ed
Ġen vi
Ġen thus
Ġpro pped
Ġex ec
Ġtrail er
Ġche f
Ġall igator
Ġwin try
Ġsle igh
Ġbubb ling
Ġatt ach
Ġve il
sc ent
Ġrest rain
Ġrest oring
Ġcor rid
Ġstream ers
Ġcur led
Ġcur ved
Ġret urning
men ts
Ġpol itical
Ġhal ting
Ġski ll
Ġphotograp hic
Ġart ists
Ġpass ed
Ġpass ers
Ġwaters ide
Ġsi zes
ank ment
Ġslo ops
Ġcompet itor
Ġru ins
Ġcig ar
Ġmas ter
Ġhug ged
ium s
bi les
Ġmask ed
co stume
co llide
Ġsweatshirt s
app ing
Ġband aged
Ġbare ly
Ġbare foo
mo ther
Ġcr ab
Ġcr ate
Ġtun ic
gy back
Ġflower ing
Ġcre ases
Ġqu ilt
Ġblanket s
Ġtou ched
Ġglo ved
Ġhapp ening
Ġcont raction
Ġbalan ced
Ġtu rtle
Ġpet er
sk i
ust er
Ġwr inkled
Ġbea uty
Ġnet work
Ġmarket s
Ġround ing
Ġsheep dog
br ide
Ġpan el
Ġpr aying
Ġpick et
Ġlit tered
Ġcut s
Ġcut lets
Ġshad y
Ġshad ed
Ġchain ed
Ġdire cts
Ġdisplay ed
Ġme as
Ġbeg in
Ġter race
Ġclass room
Ġwatersk is
Ġwatersk ies
Ġcol la
Ġris ing
Ġris es
Ġsee ing
Ġdrag ged
Ġsadd led
gu ard
Ġdro pped
Ġemb races
Ġemb ankment
Ġent angled
ron ment
Ġcla y
Ġpat ient
Ġser v
Ġser ving
Ġmem or
Ġcounter top
Ġsli pper
Ġsli ppers
Ġadvertis ements
Ġtw in
Ġeas ily
Ġinc ense
Ġcorn ers
Ġpig gyback
art ly
art ment
Ġspread s
Ġspread ing
itor iums
Ġlab elled
Ġlay er
Ġbel ts
Ġbur sa
Ġnot es
Ġport able
Ġbrush es
Ġcent iped
Ġhow ling
snowboard ers
Ġpe ering
Ġpe bble
Ġmess enger
Ġjud ge
Ġflam boyant
Ġcontro ller
Ġbla me
ang ular
Ġped al
Ġcelebr ates
Ġwild flowers
Ġteamm ates
Ġfigure s
Ġpillow s
Ġrollersk ates
Ġsnowmo biles
Ġbul let
Ġconvers ations
Ġeng age
Ġroof top
Ġelectric al
Ġass isting
Ġsal on
Ġwe im
Ġgrow s
Ġeleph ants
Ġta xed
Ġloc al
Ġloun ging
Ġrecor ding
Ġrecor ds
Ġchar ging
Ġparasail er
be es
suff ers
Ġtoi lets
Ġprodu ce
Ġdep artment
Ġhut s
Ġbrother s
Ġact iv
Ġdump ster
bic ycle
bic ycling
bic yclists
Ġcau stic
Ġadm iring
Ġelev ation
Ġgown s
Ġpuff s
Ġcomplete ly
Ġdandelion s
Ġpin ned
Ġrod ent
Ġpassen ger
Ġstrugg ling
Ġnavig ation
Ġgras ping
Ġreg ister
Ġrush ing
Ġrush es
fl urry
Ġcra zy
Ġmix ing
Ġfinish ed
Ġnur ses
Ġspir al
Ġbatt les
Ġrou te
Ġrou tine
Ġpress es
Ġvideot aped
Ġtax i
Ġadmire s
motorc ycle
Ġpri ze
Ġpri zes
Ġcab in
Ġcab by
Ġrif le
Ġrif les
Ġveget ation
Ġcurious ly
Ġwrist bands
Ġassist ance
af rican
pro of
Ġsear ching
Ġinvol ving
Ġdum my
Ġfling s
Ġsta ff
Ġcond emn
Ġul cer
Ġseem s
Ġpurch as
Ġbarb ed
Ġbeds tead
Ġcompan y
Ġhorsesho es
Ġdirect ly
Ġentert ain
lid er
Ġfrown ing
Ġwhisp ering
Ġfris bees
rollerbla der
frie nds
Ġastr ide
Ġbree ze
Ġtil ted
Ġwiz ards
Ġrab bit
Ġtor n
Ġbluej eans
Ġcott on
Ġlamb s
Ġspon ge
Ġsocial izing
Ġdram atically
Ġsco ttish
Ġruss ell
Ġmechan ical
Ġdepe nds
Ġdepic ting
Ġfatig ues
Ġhumming bird
Ġlollip op
ext reme
mil itary
mus icians
tour ist
var ious
Ġest ablish
Ġais le
Ġaud itoriums
Ġawk ward
Ġaustr alian
Ġwol f
Ġwec wuits
Ġber nhard
Ġbamb oo
Ġdeter min
Ġmes h
Ġgho st
Ġgigo lo
Ġfad ed
Ġham mer
Ġray s
Ġrum m
Ġratt ling
Ġtobo ggan
Ġluck y
Ġskate park
Ġspee ch
Ġeins tein
Ġrequ ired
Ġsundo wn
Ġlibert y
Ġfootfall s
Ġbarric ade
pedestri ans
Ġpharma cy
Ġnodu les
Ġnightcl ub
Ġenvi ronment
Ġenthus iast
Ġexec uted
Ġcorrid or
Ġbarefoo ted
Ġpatient ly
Ġcentiped e
a gh
a ur
a cing
a iss
a ired
a use
b re
b er
b on
b ine
b right
c rack
c ility
c ars
d on
d ge
d ding
e ing
e ers
e ckled
f lo
f ort
f ely
g r
g un
g rown
g ies
g ging
g ical
g old
h and
h or
h ad
h ang
i b
i ple
i pped
j ump
k ay
k ier
k erc
l ying
l ick
l if
m es
m em
m ale
m ult
m imi
m ely
n ear
n ch
n gh
n ut
o ck
o bile
o late
p u
p ar
p it
p ige
p arent
r ying
r ase
s le
s la
s ea
s il
s uit
t ana
u ish
u nds
w ear
w atch
w ise
y e
y al
z on
Ġ x
Ġ ver
Ġ ren
Ġ ig
Ġ ign
Ġa x
Ġa ff
Ġa qu
in ed
th orse
Ġs wo
Ġs ack
Ġs ig
Ġs ym
Ġs ense
Ġs orts
Ġs appy
Ġw es
Ġw ed
Ġw ou
Ġw ea
Ġb le
Ġo ars
Ġo wl
the ater
an ke
an se
an imal
an gle
Ġin k
Ġin form
Ġin tern
re house
re mely
er al
er ce
Ġp is
Ġp un
Ġp ear
Ġp low
Ġp ay
Ġp ran
Ġp att
Ġp unch
Ġp ins
Ġd ear
Ġd as
Ġd am
Ġd ug
Ġd ip
Ġd aring
Ġd alm
ro t
ro cks
Ġc ool
Ġc iv
Ġc ert
Ġc yl
hi st
hi theater
le as
le nt
ar l
ar at
ar ium
Ġm a
Ġm r
Ġm ad
Ġm ill
Ġm ac
Ġt in
Ġt ired
Ġt ip
Ġt ubs
Ġt angled
Ġt attered
Ġg le
Ġg ap
Ġdo ve
Ġdo me
Ġdo dge
nd y
la mp
Ġon ce
Ġon ward
is c
is ing
is oner
Ġf u
Ġf ear
Ġf ed
Ġf oo
Ġh unched
at ians
un ks
Ġwi ping
lo t
Ġr ad
Ġr uble
Ġst u
Ġst y
Ġst ood
Ġst ony
Ġwhi t
om obile
Ġbo ut
Ġto ast
Ġto pped
and y
and er
te ct
te nder
te land
or a
or d
as ts
as ion
Ġpla ins
et ti
Ġj une
ed ience
on os
mp er
mp ed
mp les
Ġy anke
Ġhi de
gh an
Ġat te
itt i
Ġth ing
ack ed
Ġju ke
ea red
ce ment
Ġn ame
el unk
Ġred bull
oo k
Ġlo bster
Ġlo ngh
ver ted
Ġgr in
Ġgr and
Ġgr ip
Ġro ver
Ġro ses
Ġro yal
Ġan y
Ġan ten
Ġyoung sters
Ġfro lick
Ġhis tor
Ġsh ru
Ġsh elf
Ġho ped
Ġho lly
Ġho thouse
Ġsm ell
Ġsm artly
Ġsm ock
Ġsm eared
st ri
st orm
st ance
bo l
Ġco ck
Ġco bb
ic les
im onos
Ġfi ll
Ġfi ery
Ġfi erce
Ġsw ay
Ġover grown
to l
to ck
to on
board er
Ġle ss
Ġle ng
Ġle vel
Ġle mon
Ġloo se
ad ood
se mb
Ġup right
Ġperson nel
Ġtr ade
Ġcar ies
Ġcar ved
Ġcar bon
Ġla den
Ġla ssies
Ġher ds
ab ly
Ġby stand
Ġbu st
Ġbu ying
Ġk imonos
Ġra ging
Ġra ced
Ġra iled
ren ce
Ġpar rot
Ġbi lls
Ġgroup s
Ġpo tters
Ġsp in
Ġsp ade
Ġsp ell
Ġsp raw
Ġsp illed
Ġsp agh
Ġsp eckled
Ġe v
Ġe ther
Ġe ast
Ġe ase
Ġas h
Ġmou nds
Ġre nder
Ġre gre
Ġre nown
Ġre acts
Ġre semb
Ġmen u
Ġch ats
Ġch allen
Ġcl uster
imb er
Ġother wise
Ġoff stage
Ġwa king
Ġwa rehouse
Ġmountain eers
Ġsu g
Ġsu cks
Ġso l
Ġbas es
Ġmo p
Ġmo ck
Ġmo ved
Ġmo wed
Ġsho ck
Ġsho cked
Ġli ves
Ġhand kerc
um in
Ġfa cility
ure s
ep ing
Ġgo d
Ġgo t
Ġgo th
pp ery
Ġhead lights
Ġpu zzling
ig or
ig zag
Ġsun k
Ġsun flow
pe less
pe ctive
Ġclo sing
dy nam
Ġca rous
Ġdr aped
Ġdr unk
Ġhill top
Ġblo wn
Ġi ron
Ġse ction
Ġfl u
Ġfl ung
Ġgu ided
Ġarm bands
Ġmotor boat
Ġv antage
Ġv igor
Ġcamp ground
Ġbasketball s
Ġhor n
Ġleap ed
Ġleap fro
Ġsc uff
Ġsc ared
Ġsc outs
Ġsit es
ne w
Ġgrey ish
Ġperform ed
Ġbase ment
Ġha mper
Ġob edience
Ġkiss ed
Ġflo p
ra cial
Ġcom ic
Ġcom bine
Ġcom fort
Ġcon fe
Ġte nder
Ġhigh land
Ġdan e
ish ed
Ġcoat ed
Ġad v
Ġad dress
Ġstri kes
Ġde w
Ġde br
Ġde velo
Ġbr ass
Ġdark er
bb les
bb ell
bb ery
Ġph rase
Ġag es
Ġam az
Ġaf ghan
Ġno thing
Ġwhe at
Ġdri ll
Ġdri vers
Ġhe aling
Ġopen ed
ia c
Ġset ter
Ġmar ried
Ġmar ina
Ġcliff side
ok ed
Ġbody guard
Ġfish ermen
Ġba the
Ġhu nd
Ġspr ings
Ġlight er
Ġga ze
Ġshow ered
Ġshow ering
Ġfloor ing
Ġpre vent
Ġhou sing
Ġen for
Ġpro per
Ġpro cess
Ġex ting
Ġex isting
Ġex ha
ru py
Ġche ered
Ġche ese
Ġtall er
we ed
Ġday time
Ġwin king
Ġsle nder
Ġgoal keep
Ġatt raction
Ġland ed
Ġlean ed
Ġwor shi
Ġcor d
Ġcor al
Ġstream ing
Ġstream ed
ycl ist
Ġdes cent
Ġdes olate
Ġfem ora
Ġcur ling
Ġret aining
Ġal low
Ġal ter
Ġdis gu
Ġsil k
Ġapp lies
Ġapp alling
Ġapp lying
Ġapp arat
ric ans
Ġboo t
Ġsub stance
Ġwaters p
Ġsi pping
Ġbre a
Ġneck s
Ġsn arl
Ġslo ugh
Ġslo ping
Ġshou ts
Ġshou ting
Ġrain ing
Ġview s
elder ly
Ġpaper back
Ġsqu ares
ator y
Ġpack age
Ġpack ages
Ġmon k
Ġmon tana
Ġmus lin
Ġrug ged
Ġband s
Ġband age
Ġband ages
Ġbou nded
Ġraft ers
Ġtun ing
Ġgor ge
Ġoppo se
Ġele ction
Ġsa ve
Ġsa fi
Ġsa fely
Ġsa mples
Ġcre ated
Ġsupp orts
Ġqu art
Ġring ing
Ġfun eral
Ġstr ide
Ġstr uck
Ġstr aining
Ġfr ing
Ġcont in
Ġwr ists
Ġbea rer
Ġnet s
Ġchew ed
Ġshi elding
Ġtug boat
Ġfan gs
Ġbush y
br id
Ġap iece
Ġind ia
Ġpan ting
Ġpr ide
Ġpr airie
Ġpr isoner
Ġlick ed
Ġrough ly
Ġlin ks
Ġjo ke
Ġcard iac
Ġmed it
Ġme at
Ġran ger
Ġdecor ation
Ġdecor ations
Ġexp anse
Ġdrag sters
Ġfinger pain
gu age
gu ins
gu ards
gu ndy
Ġdro oping
Ġtravel ling
Ġcla use
Ġgar ment
Ġpat rick
Ġser ves
Ġser ved
Ġwrap s
Ġprote cts
ho peless
Ġparas urf
Ġsla b
Ġsla m
Ġinter tube
Ġinter vening
Ġmat ador
Ġtow er
Ġpeace ful
Ġdin os
Ġtick ets
Ġpen c
Ġpen guins
Ġheadscar fs
Ġpige on
Ġtri lling
Ġna val
Ġprot ests
Ġprot esting
Ġbur st
Ġbur gundy
Ġdisc uss
Ġdev ices
Ġspeak er
Ġgrocer ies
Ġke pt
Ġpow ers
Ġim ages
Ġthou ght
Ġbarrel s
Ġcoo ks
Ġchur ning
Ġvar a
Ġvar ying
Ġscand al
Ġexc it
Ġcolle ction
Ġcolle cting
Ġcolle cts
Ġaut o
Ġaut omobile
Ġpe bbles
Ġrece ive
Ġbla zing
Ġped d
Ġmag ic
Ġexam ines
Ġfarm ers
Ġkeep ing
Ġkeep er
Ġchalk board
Ġrollersk ater
ath let
Ġhear d
Ġhear ts
Ġsnowmo b
Ġvis itor
Ġeng aged
Ġeng ulf
Ġtouch down
tr unks
Ġass ailing
Ġsal ary
Ġwe b
Ġwe ird
Ġint ense
Ġgood s
Ġcomple ting
whe el
gull s
Ġident ically
Ġwas teland
Ġcran k
Ġrecor der
rid er
Ġsim on
fight ers
Ġbad ge
Ġdot ted
Ġeff ort
dirt y
Ġz igzag
Ġcro ps
Ġshel ves
Ġtrans it
Ġevery one
Ġparachut ist
Ġwee k
Ġbever ages
Ġext remely
Ġsec ured
Ġelev ated
Ġmin ers
Ġtar so
Ġtuck ed
Ġcomm ander
Ġofficial s
Ġelectronic s
Ġbillboard s
Ġesc ape
Ġmel ted
Ġdon key
Ġyawn s
Ġoverh anging
Ġlabr adood
Ġbooks h
Ġbound ary
Ġdemonstr ation
Ġdemonstr ates
go ers
ula ted
Ġgras p
Ġreg ion
Ġsquee zed
Ġsquee ze
fl uffy
for d
Ġpas te
Ġcra mped
Ġmiss ed
Ġmix ed
Ġlan guage
Ġnur sing
Ġload ed
Ġlear n
bat ics
Ġpou ches
Ġdy e
Ġmatt ress
Ġremo te
Ġremo ving
Ġsupport er
Ġvideot aping
Ġtooth brush
Ġtax es
motorc yclist
cl imber
Ġsash es
Ġpries ts
Ġarab ian
Ġfoc used
Ġveget ables
Ġornam ent
Ġornam ental
Ġsaxo phones
Ġsear ch
Ġox en
Ġox ford
Ġocc upied
Ġocc asion
Ġdum bbell
Ġfer ries
Ġfling ing
Ġsta ples
Ġlod ge
Ġlod ges
Ġul tim
Ġbloss oming
Ġbloss oms
Ġill ustr
Ġpurch ase
Ġhorsesho e
Ġspecial ized
ot ic
Ġel se
Ġawa iting
Ġcri b
Ġming le
Ġming ling
Ġang ry
Ġfix ing
Ġbudd ha
Ġbudd hist
Ġparag l
Ġparag lider
Ġem itting
Ġsunba the
Ġtemp le
Ġameric a
Ġameric ans
Ġcustom er
Ġacce p
Ġaero dynam
Ġflex ible
tw in
Ġamp hitheater
Ġado les
Ġsy rupy
Ġmast ers
Ġtumb le
Ġfin al
Ġhur rying
Ġstead y
Ġnip ple
Ġgrim ace
Ġant icip
Ġclut ching
Ġligh thorse
Ġhandic apped
Ġdra ft
Ġcolon ies
Ġven us
Ġvac ant
Ġconf used
Ġador ned
Ġcapt ured
Ġcanad a
Ġener gies
Ġquiet ly
Ġacc ents
Ġencour aging
Ġfavor ite
Ġsepar ate
Ġolymp ics
Ġaccompan ied
bus y
pic ture
run ners
Ġkey board
inter racial
Ġsour ce
Ġpers pective
Ġmanne quins
Ġthatch ed
Ġgrad es
Ġcoast line
Ġbec ause
Ġspi kes
Ġreck less
Ġreve aling
Ġsund ry
Ġfacepain t
Ġnovel ty
Ġrestrain t
Ġserv ice
Ġmemor ial
Ġweim aran
Ġactiv ity
Ġpurchas ing
Ġestablish ment
Ġawkward ly
Ġdetermin ed
Ġghost b
aiss ance
crack er
don ald
gun s
hor ses
had ow
mult iple
pu ppy
pige ons
sea gulls
Ġren aissance
Ġign oring
Ġaqu arium
Ġswo oping
Ġsig ning
Ġsym bol
Ġwes tern
Ġpis tol
Ġpran cing
Ġpatt ies
Ġdas ch
Ġdam aged
Ġdalm atians
Ġcool ing
Ġciv il
Ġcert ific
Ġmac donald
Ġrad io
Ġjuke box
Ġanten na
Ġfrolick ing
Ġshru bbery
Ġholly wood
Ġcobb ler
Ġleng th
Ġlemon ade
Ġbystand ers
Ġspagh etti
Ġregre t
Ġchallen ge
Ġlives tock
Ġhandkerc hi
Ġsunflow er
Ġcarous al
Ġleapfro g
Ġscuff le
Ġconfe rence
Ġdebr is
Ġenfor cement
Ġexha ust
Ġgoalkeep er
Ġapparat us
Ġquart ers
Ġfingerpain ts
Ġdinos aur
Ġengulf ed
Ġlabradood le
Ġultim ate
a h
a id
a cle
a ign
a iled
a ilor
b u
b al
b ed
b ers
b each
b um
b are
b uck
b ook
c at
c id
c ri
c ycle
c atch
c ag
c age
c ade
c ricket
c uba
c ument
c upied
d we
e on
e be
e vil
f ish
f essional
f illed
g n
g in
g th
g ear
g les
g led
g ist
g age
g est
g roud
h n
h ed
h ers
h ea
h am
h ind
h em
h ow
h ol
h ere
h ose
h aps
i i
i en
i ver
i ller
i ant
i bb
j ect
j apanese
k er
k ed
k ers
l ers
m i
m ic
m ine
m ow
m uff
m iddle
n al
n es
n ine
n ment
n est
o y
o la
o te
o ting
o dy
o sing
p ak
p erf
p ries
p lane
p ants
p iece
p ads
p aid
r is
r ide
r iding
r ists
r mo
s y
s ks
s ery
s que
s wers
s unk
t le
t all
t ack
t ic
t ain
t ted
t urf
t ub
t ally
t attoo
t rain
t ens
u et
u cer
u late
v ul
v ish
w ar
w at
w all
w ind
w ag
w rest
w are
w rap
w ell
w elling
w ho
w eds
w recked
y or
y ou
y ote
z mat
Ġ ing
Ġ er
Ġa ge
Ġa ce
Ġa ri
Ġa ime
Ġa stro
in o
in t
in side
th ol
ing ly
Ġs an
Ġs atch
Ġs ip
Ġs ys
Ġs ession
Ġs alm
Ġs ams
Ġw an
Ġw on
Ġw el
Ġw oo
Ġw ran
Ġw recked
Ġb its
Ġb aked
Ġb itter
Ġb isc
Ġo u
Ġo re
Ġo ur
Ġo ran
Ġo ust
Ġo val
Ġo wing
an cing
an ges
Ġin verted
re sh
re feree
re scent
er an
er ves
er ted
er ia
er ature
Ġp hi
Ġp iling
Ġp ant
Ġp ensive
Ġp roud
Ġd re
Ġd ue
Ġd ag
Ġd ale
Ġd ie
Ġd ivers
Ġd welling
Ġthe rmo
ro ck
ro te
ro pes
ro lin
ro batics
ro vul
Ġc rest
Ġc uff
Ġc iti
Ġc ubs
Ġc attle
hi p
hi tect
ar n
ar ist
Ġm y
Ġm oun
Ġm ate
Ġt ab
Ġt ying
Ġt urf
Ġt ale
Ġt art
Ġt amb
Ġt ints
Ġt rous
Ġt esting
Ġt ested
Ġt apping
Ġg on
Ġg ain
Ġg ay
Ġg na
Ġdo ub
Ġdo ugh
Ġdo min
Ġdo cument
nd es
nd ic
la ying
la dies
Ġon es
Ġon look
is ers
is ted
Ġf ame
Ġf ant
Ġf ru
Ġf att
Ġf ists
Ġf ound
Ġf iddle
ck les
ck ering
al o
al y
Ġh un
Ġh om
Ġh ate
Ġh umb
at ic
at ening
at ely
un iform
it ies
it led
it ted
Ġwi do
Ġwi cket
lo ne
lo ye
lo gist
Ġr d
Ġst ren
Ġst iff
Ġst ance
Ġst ains
Ġst acks
Ġst unning
Ġst abs
Ġst unt
Ġst acked
en ting
Ġman ner
Ġman tle
Ġwhi ps
Ġwhi pping
Ġbo oming
Ġbo hem
wo lf
all ic
Ġto es
Ġto rt
Ġto ll
Ġto ok
Ġto bag
rou ded
and el
te m
te p
or ting
or ies
or ds
or ary
as on
as hirt
as ak
as ter
Ġpla cid
et y
et ic
ch o
ch ure
Ġl ump
Ġplay groud
Ġj a
Ġj r
mp h
Ġy ear
Ġy ach
Ġy arn
Ġhi ss
Ġhi dd
Ġwat ered
oun ts
red ible
red evil
no t
Ġth ri
ers hirt
ers us
ers kier
ou gh
ea led
Ġwater proof
ce ly
Ġn ut
Ġn ine
Ġn orth
Ġlo an
Ġlo ck
Ġlo we
Ġlo nel
Ġlo use
Ġlo cks
Ġlo oming
ver green
Ġgr ap
Ġgr ating
Ġgr appled
Ġgr itti
ut arist
Ġro se
ri ver
ri mm
Ġan tr
Ġan swers
Ġyoung ster
Ġsnow p
Ġsnow ed
Ġsnow field
Ġsnow storm
Ġfro cks
Ġfro sty
Ġsh am
Ġsh orth
Ġsh rouded
ur ated
Ġho es
Ġho ly
Ġho bby
Ġsm ear
Ġsm ack
st s
st ar
st ud
st op
st acks
bo th
bo tt
Ġout ran
Ġout wards
Ġco s
Ġco t
Ġco ron
Ġco cks
Ġco cked
Ġco yote
ic ans
Ġgrass land
im ent
ll iant
Ġdown ward
Ġdown wards
ain t
Ġball player
am ble
am ond
Ġsw ar
Ġsw am
Ġsw erves
Ġover flow
Ġle ts
Ġle ast
il ies
Ġbe ats
se at
se ated
se eing
ks hire
Ġback be
Ġback seat
Ġcar ab
Ġcar av
Ġcar toon
Ġla s
Ġla kes
Ġla scar
Ġla gging
Ġla vish
ts tep
ap h
Ġrock star
ay er
ab out
Ġbu ckled
Ġbu dwe
Ġbu ckles
Ġk now
Ġk aw
Ġpar ting
Ġpo ts
Ġpo ps
Ġsp l
Ġsp itting
Ġsp ool
Ġsp ite
Ġsp arrow
Ġsp elunk
air borne
air plane
Ġe gy
Ġe vergreen
Ġas k
Ġfor k
Ġfor ce
ght ened
ress es
Ġre ct
Ġre pla
Ġre co
Ġre sp
Ġre leas
Ġbeach goers
Ġmouth guards
Ġch ins
Ġch oke
Ġch art
Ġch erry
Ġch ests
Ġch anging
Ġch anges
Ġch andel
Ġdress ing
Ġjumps uits
if ied
Ġcl ump
Ġcl ips
Ġcl ipped
Ġne at
row ing
Ġwa ists
Ġwa vy
orm er
Ġso il
Ġso led
ul ing
ul ting
Ġmo t
Ġmo wn
Ġmo tt
Ġmo sque
range ment
Ġhand ling
Ġhand led
Ġside long
um ed
Ġfa ced
Ġfa ith
Ġpool side
ves ted
our ines
ct ured
sh a
sh ing
sh ow
sh room
sh ot
Ġdirt bi
Ġsur gical
Ġhead way
Ġhead phone
Ġhead long
Ġhead lamp
Ġhead gear
Ġhead wrap
Ġpu zzled
Ġpu dding
Ġpu ckering
ion ately
Ġfoot p
Ġfoot brid
ly weds
ff ron
pe ndic
Ġhold er
Ġclo ak
Ġclo aks
Ġshort er
Ġpa ils
Ġpa get
Ġpa vil
Ġpa mph
Ġca use
Ġca thol
Ġca rolin
ies t
Ġdr ug
ag gling
Ġsl ink
Ġsl ice
Ġsl inging
Ġsl ices
Ġar ri
Ġar ran
Ġar gu
Ġar ray
Ġar rangement
Ġun paid
Ġblo om
Ġblo ody
Ġse x
Ġse as
Ġse mi
Ġgu ides
Ġfo al
Ġit ing
Ġit aly
Ġmu le
Ġmu shroom
ine ers
Ġv ist
Ġv ersus
erf ul
Ġfri ll
Ġfri ghtened
Ġcamp aign
Ġhor ror
Ġsc ow
Ġsc rap
Ġsc oring
Ġsc oop
Ġsc rimm
Ġground ed
Ġunder mine
rest less
Ġha zmat
Ġflo rists
Ġflo rescent
ra il
ra fting
Ġcom mer
qu arter
Ġcon ver
Ġcon ven
Ġcon vention
Ġte x
Ġte nd
Ġte chnic
Ġri ce
Ġri vers
Ġri oting
Ġlong sle
Ġpi lots
Ġpi lot
are l
Ġsign als
Ġdan ger
Ġdan gles
ish ing
Ġad vent
Ġtre ats
Ġtre ated
Ġbr ing
ph oto
ug ging
Ġdark ly
Ġdark ness
Ġph ys
Ġtable t
Ġfla ts
Ġag it
Ġag ent
Ġag ents
Ġag gress
Ġflow s
Ġbes t
Ġam ount
Ġam iss
Ġam nest
Ġam ounts
Ġcoll ision
Ġno ndes
Ġcap ture
ps able
Ġmid ges
Ġmid ian
Ġbird cage
Ġbag gage
Ġdri fting
Ġsto pping
Ġsto cking
Ġkick fl
ect ionately
Ġimp erson
Ġwind fall
Ġsurround s
Ġcan ned
Ġcan cers
Ġcan not
Ġbackpack ers
Ġmar ine
Ġmar que
out door
Ġbody suit
Ġstep ped
Ġboard ed
ub land
Ġhu mp
Ġhu sks
hou nd
hou sing
hou ette
some body
Ġga uge
Ġgra ze
Ġsky ward
dd ed
Ġed ges
Ġpoin ter
Ġcas cade
Ġshow girl
Ġshow girls
Ġfire ball
Ġfire fighters
Ġfire hose
Ġbri mmed
Ġbri lliant
Ġforest s
Ġoutfit ted
Ġpre ser
Ġpre car
Ġpre gn
Ġen act
Ġen ough
Ġpole on
Ġsurfboard ing
Ġpro p
Ġpro mo
Ġex it
Ġex otic
ru pt
est al
est ion
est yle
Ġban ister
Ġday s
Ġpart ner
Ġhard tack
ud es
Ġvi e
Ġwin ning
Ġstar buck
ol ished
Ġgi ven
Ġgi ants
Ġgoal tender
Ġscar cely
Ġstat ute
Ġpl ans
Ġpl ugging
Ġbet ter
Ġdist ri
Ġmet allic
Ġves sel
Ġwor ried
Ġtramp led
Ġstore front
Ġlawn mow
zz ed
Ġmetal s
Ġfour s
Ġroller co
Ġcur l
Ġcur ls
Ġret ro
Ġret ail
Ġal ways
Ġal co
Ġal bert
Ġal bum
Ġdis co
Ġhar mon
Ġhar vested
Ġpol and
Ġdoor bell
Ġhal o
Ġhal ves
Ġapp arent
Ġapp arel
Ġcouch es
Ġspo ke
Ġsub m
Ġsub ject
de er
Ġpass age
Ġsi mps
Ġbre ast
Ġbre asts
Ġequ ino
Ġprep ared
Ġsn ugg
Ġsn orted
Ġsn apping
sm oke
Ġru st
Ġru gs
Ġru stic
ition s
Ġview ing
Ġcount y
Ġlife less
Ġform ed
Ġsweats uit
Ġsqu ad
Ġplan ting
Ġplan ets
Ġste al
Ġste ered
Ġshepherd s
cor ted
Ġband it
Ġcr ates
gy m
Ġele ment
Ġrollerbla de
Ġrollerbla ders
Ġear muff
Ġsa fe
Ġsa ucer
Ġsa ffron
Ġwar s
Ġcre w
Ġcre ates
Ġsupp orted
Ġsupp orting
Ġdance flo
Ġqu ite
Ġqu itted
Ġqu estion
Ġbull ion
Ġbull fight
Ġbull fighter
Ġsports man
Ġsports wear
Ġstr aggling
Ġpaint brush
Ġfore ign
Ġfore arm
Ġhapp ier
Ġhapp ens
Ġpet erson
Ġpet ted
Ġlead er
Ġlead ers
ust ers
Ġhome base
ches ted
Ġshi t
Ġshi ver
Ġshi ppers
Ġfan ning
Ġfan ny
Ġbro ok
Ġbro chure
br unette
Ġphotograph y
Ġpan elling
Ġpan elled
Ġspeed boat
Ġemp loye
Ġpr ayer
Ġlit erature
Ġfair ies
Ġgarden ing
Ġway s
Ġsniff ed
Ġtro op
stre am
Ġspect acle
Ġrough housing
Ġschool girls
Ġjo hn
Ġheadband s
spe ed
Ġmed al
Ġbeg an
Ġmotorbi ker
Ġter min
Ġter med
Ġcarp i
Ġrapid ly
ious ly
Ġran ged
Ġslee k
Ġexp er
Ġexp and
Ġexp os
Ġexp osing
Ġchi ps
Ġchi ef
Ġchi cag
Ġdrag s
Ġprin ces
Ġprin cess
ane ous
Ġac cess
Ġac robatics
Ġent itled
ron s
ron ized
Ġgl itter
Ġgl ances
Ġgl ancing
Ġfar mer
Ġguard ed
Ġguard rail
Ġpat ro
ens ils
Ġref use
Ġref resh
Ġprof ession
Ġeye glasses
ho p
Ġparas ailor
Ġsli ppery
Ġappro ached
Ġbreak d
iz e
snow y
Ġsail boats
Ġinter cept
Ġinter ior
Ġtw ent
Ġtw ist
Ġtw isted
Ġtow ers
Ġtow els
Ġrob ed
Ġconstru cted
Ġparticip ant
fire men
fire works
Ġviol ins
Ġquick er
skateboard ers
oc r
oc cupied
Ġinc redible
Ġbon fire
Ġpen ance
Ġstump s
lin ing
Ġtri ps
Ġtri als
Ġtri angular
Ġtri angle
Ġgro ve
Ġprot ested
Ġbur rowing
Ġdus ted
Ġgroom ed
Ġforward s
Ġnot ice
Ġknit ted
Ġmass es
Ġtrot ter
Ġtime out
Ġcoach es
Ġdesce nd
Ġcircle s
Ġport ion
Ġda redevil
Ġtight ly
Ġgolf er
fa ther
Ġbeam s
Ġstud ent
Ġstud ies
Ġvar ied
Ġattack s
Ġattack ed
Ġcolle cted
snowboard ing
Ġdinner time
Ġpe er
Ġpalm ar
Ġcontro lling
Ġbla zed
Ġped estal
Ġtut ors
Ġbor is
Ġthin king
Ġcelebr ation
Ġinner tub
Ġwild ly
Ġwild ebe
Ġcase ating
Ġship board
Ġsword fight
pt ian
Ġaim ed
Ġper haps
Ġper pendic
Ġscr amble
Ġscr ubland
Ġeng aging
Ġeng lish
Ġsal t
Ġsal ver
Ġwe ights
Ġwe bster
Ġgood by
Ġdraw ings
Ġcomple x
Ġta ught
Ġdoberman s
Ġfle a
Ġfle w
Ġfle et
Ġarc hitect
Ġpres idential
Ġoverlook ed
Ġdaught ers
be hind
rid ers
Ġsou p
Ġcal ico
Ġtub es
Ġtub ular
Ġgentle men
Ġhuman s
Ġexcited ly
Ġcontrol s
Ġbad ges
Ġdish es
Ġdish eve
Ġlink ed
Ġposs ib
Ġpaw ing
Ġartist ic
Ġponytail s
Ġreflection s
Ġes corted
Ġwand ering
Ġori gin
Ġdem olished
Ġdump ing
Ġcro pped
Ġcro oked
Ġshel tered
Ġmex ico
Ġmex icans
Ġswords man
Ġfashion ably
Ġsat urated
Ġfre ak
Ġfre estyle
Ġtool box
Ġoper ate
Ġattent ive
Ġattent ively
Ġstretch er
Ġincl udes
Ġmin imal
Ġwindows ill
Ġworks hop
Ġquarter pipe
Ġsimilar ly
Ġcannon ball
Ġpin stri
Ġpin wheel
Ġdu ke
Ġcru st
Ġcru ise
Ġcru cif
Ġcru isers
Ġmel ts
Ġdon ning
Ġdon ets
Ġfurn ace
Ġnice ly
Ġspons ors
Ġrep elled
Ġnavig able
Ġtransp arent
bird s
Ġpy rote
Ġstall s
Ġreg ain
Ġpurs ues
Ġmarsh y
Ġstart led
Ġexplo ring
Ġyouth s
Ġbagpip ers
Ġcharact er
Ġgallo ps
Ġav rovul
Ġcra fts
Ġglow ing
Ġnur sery
Ġoutc ry
Ġund one
Ġund ershirt
Ġlear ns
Ġpop ulated
Ġtread ing
Ġsom bre
Ġpou ch
Ġpou red
Ġpress ed
Ġmi lls
Ġfe els
Ġremo ved
Ġsold iers
Ġdrain age
Ġobsc urity
Ġvideot apes
motorc yclists
Ġdachsh unds
Ġovers hadow
Ġmor als
Ġgen etic
Ġfind s
Ġfind ing
Ġlunch eon
Ġthre atening
Ġgreet ing
Ġkno cks
Ġkno cked
Ġkno tted
Ġsuper v
Ġornam ents
Ġcontest ants
Ġwrist watch
Ġeyeb row
Ġpursu ing
Ġavo iding
Ġskyscrap ers
af ricans
mar ching
mar athon
pro fessional
Ġbra ke
Ġinvol ved
Ġdi amond
Ġfer ons
Ġshaw ls
Ġcond itions
Ġmoon walk
Ġunf ur
Ġill umin
Ġvictor ia
Ġtravers e
Ġbarb er
Ġcompan ion
Ġentert ained
Ġprotect or
Ġprotect ors
Ġpossession s
Ġsomers a
Ġel bow
Ġawa it
Ġodd ly
hic s
Ġgrown up
Ġflash ing
Ġwhisp er
eter an
Ġang les
Ġus ual
Ġpoor ly
Ġsunba thers
Ġconfront ation
Ġtemp les
Ġnote book
Ġskyd iving
Ġskyd ivers
Ġskyd iver
Ġdesign s
Ġdesign ed
Ġsweat band
Ġcustom ers
Ġmuscle s
Ġacce pted
Ġaero bic
Ġflex ing
po st
po int
shi ppers
zag a
Ġque en
Ġamp lif
Ġsy nch
Ġsin king
Ġsin ks
Ġsight seeing
Ġbell bott
Ġtumb ler
Ġfin ely
Ġstead ily
Ġgrim acing
Ġpocket s
Ġrec lining
Ġclut ches
Ġligh ted
Ġhandic ap
Ġdra ws
Ġcolon ial
Ġvac ation
Ġcons umed
Ġcapt ains
Ġcanad ian
Ġener gy
Ġbroad ly
Ġbroad way
Ġhook er
Ġacc ident
Ġtwig s
Ġfeature s
police man
Ġsepar ated
Ġolymp ic
cam era
Ġid ea
Ġut ensils
Ġwit ness
Ġdel i
Ġdiv ided
Ġfal se
Ġfal con
Ġhack ing
Ġrick ets
Ġrick ety
Ġstir s
chnic s
Ġyell s
Ġrot weiler
Ġanti que
Ġshut ters
Ġbuff alo
Ġrecre ation
Ġrecre ational
Ġreview ing
Ġmust ard
Ġmust ached
Ġcomfor ting
Ġcontemp late
Ġconcentr ated
Ġdef ensive
Ġbrand ed
Ġkickbox ing
Ġmary land
Ġattach ing
Ġmeas ured
Ġcolla p
Ġstaff ords
Ġrumm aged
Ġrumm aging
Ġenthusiast ically
gold en
hand s
jump ing
kay aker
mem bers
par ade
parent s
sla ter
sil houette
zon a
Ġver a
Ġig no
Ġax e
Ġaff ectionately
Ġwea ving
Ġinform ation
Ġintern ational
Ġpun ctured
Ġpear ls
Ġcyl inder
Ġmad ly
Ġtin ted
Ġgle e
Ġdodge ball
Ġfu rious
Ġfear ing
Ġfoo tstep
Ġstu dded
Ġyanke e
Ġatte nding
Ġlongh aired
Ġhistor ic
Ġcock pit
Ġspraw led
Ġeast pak
Ġsug gest
Ġsol itary
Ġgoth ic
Ġflu ore
new lyweds
Ġaddress es
Ġamaz ing
Ġhund reds
Ġexting uish
Ġworshi p
Ġdisgu ises
Ġbrea thing
Ġslough ing
Ġgorge ous
Ġfring e
Ġcontin ue
Ġparasurf er
Ġpenc il
Ġburst ing
Ġexcit ement
Ġpedd lers
Ġmagic ian
athlet ic
Ġsnowmob iling
Ġvisitor s
Ġbooksh elf
Ġillustr ation
Ġaccep ts
Ġaerodynam ic
Ġadoles cent
Ġtumble weed
Ġweimaran er
Ġghostb usters
Ġdasch und
Ġcertific ates
Ġhandkerchi ef
cri pt
catch er
ola ted
perf ormer
pries t
tattoo ed
wat erskier
wind ow
wrest le
yor kshire
Ġari zona
Ġastro turf
Ġsatch els
Ġsys tem
Ġsalm on
Ġsams on
Ġbisc uit
Ġore gon
Ġoran ges
Ġoust ing
Ġpant ry
Ġdag ger
Ġdie go
Ġmoun ted
Ġtart ar
Ġtamb ourines
Ġtrous ers
Ġgon zaga
Ġgna ws
Ġdoub led
Ġdough nut
Ġonlook er
Ġhun ter
Ġhom es
Ġhumb le
uniform ed
Ġstren gth
Ġstunt man
Ġbohem ian
Ġtort oise
asak i
Ġyach t
Ġhiss ing
Ġhidd en
Ġthri lled
Ġnut cracker
Ġlowe red
Ġlonel y
Ġgrap hics
Ġantr um
Ġsham rocks
stud ents
Ġcoron et
Ġbackbe nds
Ġcarab ineers
Ġcarav an
Ġbudwe iser
Ġkaw asaki
Ġegy ptian
Ġrect angular
Ġreco ils
Ġresp o
Ġreleas ed
Ġchandel ier
Ġmott led
Ġheadwrap s
Ġfootbrid ge
Ġpavil ion
Ġcathol ic
Ġcarolin a
Ġvist a
Ġscrimm age
Ġcommer cial
quarter back
Ġconven ience
Ġtechnic al
Ġlongsle eve
Ġdanger ous
Ġaggress ive
Ġamnest y
Ġnondes cript
Ġkickfl ip
Ġpreser ves
Ġprecar ious
Ġpregn ant
Ġenact ment
Ġstarbuck s
Ġstorefront s
Ġlawnmow er
Ġrollerco aster
Ġalco hol
Ġharmon ize
Ġapparent ly
Ġsimps on
Ġsnugg ling
Ġearmuff s
Ġdanceflo or
Ġemploye es
Ġtroop er
Ġtermin al
Ġchicag o
Ġaccess ories
Ġrefresh ment
Ġparasailor s
Ġinnertub es
Ġperpendic ular
Ġarchitect ural
Ġdisheve led
Ġpossib ly
Ġpinstri pe
Ġpyrote chnics
Ġavrovul can
Ġillumin ated
Ġamplif ier
Ġsynch ronized
Ġbellbott oms
Ġstaffords hire
Ġsuggest ive
