{"<s>":0,"<pad>":1,"<e>":2,"<unk>":3,"<mask>":4,"!":5,"\"":6,"#":7,"$":8,"%":9,"&":10,"'":11,"(":12,")":13,"*":14,"+":15,",":16,"-":17,".":18,"/":19,"0":20,"1":21,"2":22,"3":23,"4":24,"5":25,"6":26,"7":27,"8":28,"9":29,":":30,";":31,"<":32,"=":33,">":34,"?":35,"@":36,"A":37,"B":38,"C":39,"D":40,"E":41,"F":42,"G":43,"H":44,"I":45,"J":46,"K":47,"L":48,"M":49,"N":50,"O":51,"P":52,"Q":53,"R":54,"S":55,"T":56,"U":57,"V":58,"W":59,"X":60,"Y":61,"Z":62,"[":63,"\\":64,"]":65,"^":66,"_":67,"`":68,"a":69,"b":70,"c":71,"d":72,"e":73,"f":74,"g":75,"h":76,"i":77,"j":78,"k":79,"l":80,"m":81,"n":82,"o":83,"p":84,"q":85,"r":86,"s":87,"t":88,"u":89,"v":90,"w":91,"x":92,"y":93,"z":94,"{":95,"|":96,"}":97,"~":98,"¡":99,"¢":100,"£":101,"¤":102,"¥":103,"¦":104,"§":105,"¨":106,"©":107,"ª":108,"«":109,"¬":110,"®":111,"¯":112,"°":113,"±":114,"²":115,"³":116,"´":117,"µ":118,"¶":119,"·":120,"¸":121,"¹":122,"º":123,"»":124,"¼":125,"½":126,"¾":127,"¿":128,"À":129,"Á":130,"Â":131,"Ã":132,"Ä":133,"Å":134,"Æ":135,"Ç":136,"È":137,"É":138,"Ê":139,"Ë":140,"Ì":141,"Í":142,"Î":143,"Ï":144,"Ð":145,"Ñ":146,"Ò":147,"Ó":148,"Ô":149,"Õ":150,"Ö":151,"×":152,"Ø":153,"Ù":154,"Ú":155,"Û":156,"Ü":157,"Ý":158,"Þ":159,"ß":160,"à":161,"á":162,"â":163,"ã":164,"ä":165,"å":166,"æ":167,"ç":168,"è":169,"é":170,"ê":171,"ë":172,"ì":173,"í":174,"î":175,"ï":176,"ð":177,"ñ":178,"ò":179,"ó":180,"ô":181,"õ":182,"ö":183,"÷":184,"ø":185,"ù":186,"ú":187,"û":188,"ü":189,"ý":190,"þ":191,"ÿ":192,"Ā":193,"ā":194,"Ă":195,"ă":196,"Ą":197,"ą":198,"Ć":199,"ć":200,"Ĉ":201,"ĉ":202,"Ċ":203,"ċ":204,"Č":205,"č":206,"Ď":207,"ď":208,"Đ":209,"đ":210,"Ē":211,"ē":212,"Ĕ":213,"ĕ":214,"Ė":215,"ė":216,"Ę":217,"ę":218,"Ě":219,"ě":220,"Ĝ":221,"ĝ":222,"Ğ":223,"ğ":224,"Ġ":225,"ġ":226,"Ģ":227,"ģ":228,"Ĥ":229,"ĥ":230,"Ħ":231,"ħ":232,"Ĩ":233,"ĩ":234,"Ī":235,"ī":236,"Ĭ":237,"ĭ":238,"Į":239,"į":240,"İ":241,"ı":242,"Ĳ":243,"ĳ":244,"Ĵ":245,"ĵ":246,"Ķ":247,"ķ":248,"ĸ":249,"Ĺ":250,"ĺ":251,"Ļ":252,"ļ":253,"Ľ":254,"ľ":255,"Ŀ":256,"ŀ":257,"Ł":258,"ł":259,"Ń":260,"Ġa":261,"in":262,"th":263,"ing":264,"Ġs":265,"Ġw":266,"Ġb":267,"Ġo":268,"the":269,"an":270,"Ġin":271,"re":272,"er":273,"Ġp":274,"Ġd":275,"Ġthe":276,"ro":277,"Ġc":278,"hi":279,"le":280,"ar":281,"Ġm":282,"Ġt":283,"Ġg":284,"Ġdo":285,"nd":286,"la":287,"Ġon":288,"is":289,"Ġf":290,"ck":291,"al":292,"Ġdog":293,"Ġh":294,"at":295,"Ġis":296,"un":297,"Ġand":298,"ir":299,"it":300,"Ġwi":301,"Ġwith":302,"lo":303,"Ġr":304,"Ġof":305,"es":306,"ld":307,"Ġst":308,"en":309,"Ġman":310,"Ġwhi":311,"om":312,"Ġbo":313,"wo":314,"id":315,"all":316,"Ġto":317,"rou":318,"and":319,"ear":320,"te":321,"or":322,"as":323,"Ġpla":324,"et":325,"ch":326,"wn":327,"two":328,"Ġl":329,"Ġplay":330,"Ġj":331,"ed":332,"on":333,"irl":334,"Ġboy":335,"Ġgirl":336,"mp":337,"Ġy":338,"Ġare":339,"Ġwhite":340,"Ġhi":341,"Ġwat":342,"lack":343,"Ġ<":344,"Ġwom":345,"oun":346,"red":347,"gh":348,"no":349,"Ġblack":350,"ple":351,"ge":352,"Ġrun":353,"Ġwear":354,"Ġwoman":355,"Ġat":356,"itt":357,"Ġstand":358,"Ġth":359,"king":360,"ers":361,"ou":362,"ack":363,"Ġwearing":364,"Ġju":365,"eo":366,"ea":367,"eople":368,"Ġwater":369,"Ġjump":370,"ard":371,"ce":372,"ide":373,"Ġn":374,"el":375,"hild":376,"Ġred":377,"oo":378,"oung":379,"Ġlo":380,"ver":381,"rown":382,"Ġgr":383,"ss":384,"ut":385,"ther":386,"Ġro":387,"ri":388,"ue":389,"Ġbrown":390,"Ġan":391,"now":392,"Ġchild":393,"Ġpeople":394,"Ġyoung":395,"Ġsnow":396,"rt":397,"Ġbl":398,"Ġfro":399,"Ġhis":400,"Ġsh":401,"Ġblue":402,"ur":403,"Ġho":404,"ass":405,"ning":406,"Ġsm":407,"st":408,"hirt":409,"bo":410,"Ġout":411,"round":412,"Ġco":413,"ic":414,"Ġgrass":415,"Ġdogs":416,"Ġshirt":417,"rough":418,"im":419,"Ġrunning":420,"Ġu":421,"Ġwal":422,"Ġthrough":423,"ll":424,"Ġplaying":425,"low":426,"Ġwhile":427,"ree":428,"lding":429,"Ġdown":430,"ain":431,"ke":432,"Ġball":433,"Ġfi":434,"Ġsk":435,"Ġstanding":436,"ittle":437,"am":438,"its":439,"Ġsw":440,"ve":441,"Ġover":442,"Ġgre":443,"Ġlittle":444,"to":445,"Ġrid":446,"board":447,"Ġle":448,"erson":449,"il":450,"Ġloo":451,"each":452,"ad":453,"nt":454,"Ġbe":455,"se":456,"Ġjumping":457,"Ġup":458,"eld":459,"ks":460,"Ġperson":461,"Ġback":462,"Ġfront":463,"Ġtr":464,"itting":465,"Ġsitting":466,"Ġcar":467,"Ġla":468,"ball":469,"ts":470,"Ġholding":471,"ap":472,"Ġfield":473,"Ġrock":474,"Ġsmall":475,"Ġher":476,"ay":477,"ab":478,"Ġby":479,"Ġbu":480,"Ġgreen":481,"arge":482,"Ġk":483,"ome":484,"Ġra":485,"ellow":486,"roup":487,"Ġyellow":488,"ren":489,"side":490,"Ġlarge":491,"Ġpar":492,"ate":493,"Ġbi":494,"Ġnear":495,"Ġgroup":496,"three":497,"Ġwalking":498,"Ġair":499,"Ġstre":500,"Ġpo":501,"ying":502,"Ġsp":503,"air":504,"Ġe":505,"ount":506,"Ġas":507,"Ġmou":508,"cle":509,"Ġfor":510,"ght":511,"Ġinto":512,"ress":513,"Ġre":514,"Ġbeach":515,"ng":516,"Ġmen":517,"ick":518,"ountain":519,"Ġmouth":520,"ind":521,"Ġch":522,"Ġdress":523,"Ġchildren":524,"Ġjumps":525,"if":526,"ood":527,"Ġone":528,"Ġcl":529,"Ġsome":530,"imb":531,"Ġstreet":532,"ink":533,"Ġne":534,"Ġano":535,"Ġanother":536,"Ġother":537,"Ġits":538,"row":539,"ateboard":540,"Ġruns":541,"Ġfrom":542,"Ġtwo":543,"Ġriding":544,"Ġskateboard":545,"ran":546,"Ġstands":547,"Ġbike":548,"ground":549,"Ġoff":550,"Ġwa":551,"Ġmountain":552,"Ġwatch":553,"one":554,"man":555,"Ġsu":556,"Ġjack":557,"orm":558,"Ġso":559,"ycle":560,"Ġgirls":561,"Ġjacket":562,"Ġcam":563,"Ġoutside":564,"ool":565,"ting":566,"ent":567,"Ġbas":568,"ead":569,"Ġhat":570,"xt":571,"ul":572,"Ġmo":573,"Ġswim":574,"Ġsho":575,"range":576,"ross":577,"Ġli":578,"Ġnext":579,"rick":580,"Ġlooking":581,"Ġhand":582,"Ġpink":583,"Ġorange":584,"les":585,"Ġplayer":586,"atch":587,"irt":588,"Ġclimb":589,"Ġside":590,"era":591,"Ġcamera":592,"um":593,"Ġfa":594,"ure":595,"ak":596,"Ġpool":597,"ves":598,"Ġwood":599,"Ġtheir":600,"able":601,"our":602,"ep":603,"Ġgo":604,"oot":605,"ort":606,"ct":607,"Ġbeh":608,"pp":609,"cer":610,"Ġswing":611,"Ġaround":612,"sh":613,"Ġboys":614,"iling":615,"Ġbehind":616,"Ġtoy":617,"Ġdirt":618,"Ġsur":619,"Ġcatch":620,"Ġhead":621,"do":622,"rowd":623,"Ġpu":624,"Ġwomen":625,"thing":626,"ig":627,"ion":628,"Ġcrowd":629,"Ġbic":630,"Ġalo":631,"Ġbackground":632,"lass":633,"Ġsun":634,"Ġsand":635,"Ġstick":636,"Ġbui":637,"Ġfoot":638,"ly":639,"Ġbuilding":640,"ccer":641,"Ġwall":642,"Ġsits":643,"ket":644,"Ġdressed":645,"ff":646,"Ġsoccer":647,"ward":648,"Ġalong":649,"Ġhas":650,"pe":651,"Ġhold":652,"Ġclo":653,"Ġshort":654,"dy":655,"Ġwalks":656,"Ġpa":657,"cross":658,"ture":659,"ter":660,"Ġca":661,"Ġplays":662,"ies":663,"Ġfootball":664,"Ġdr":665,"Ġhel":666,"Ġpic":667,"Ġtrick":668,"Ġpark":669,"Ġbicycle":670,"Ġface":671,"ag":672,"Ġlooks":673,"Ġhill":674,"Ġsl":675,"Ġcolo":676,"Ġclimbing":677,"Ġtop":678,"cing":679,"Ġwh":680,"ling":681,"Ġacross":682,"lasses":683,"sing":684,"aking":685,"Ġar":686,"Ġun":687,"Ġpicture":688,"Ġswimm":689,"Ġgrassy":690,"Ġblo":691,"Ġholds":692,"Ġi":693,"alk":694,"ging":695,"people":696,"cean":697,"Ġocean":698,"Ġten":699,"Ġcarr":700,"ame":701,"Ġcou":702,"way":703,"ight":704,"Ġrides":705,"tor":706,"led":707,"Ġse":708,"Ġswimming":709,"Ġsmiling":710,"Ġcarrying":711,"Ġfl":712,"Ġgu":713,"Ġfo":714,"Ġeach":715,"Ġhim":716,"Ġit":717,"Ġdoing":718,"Ġhair":719,"Ġmu":720,"nis":721,"Ġtree":722,"ving":723,"Ġtennis":724,"Ġrace":725,"Ġbasket":726,"Ġsnowy":727,"ine":728,"Ġarm":729,"iss":730,"aby":731,"met":732,"Ġhelmet":733,"Ġtoge":734,"Ġtogether":735,"Ġfen":736,"Ġmotor":737,"Ġv":738,"Ġben":739,"walk":740,"Ġroad":741,"erf":742,"Ġbaby":743,"iform":744,"Ġarea":745,"Ġuniform":746,"ark":747,"Ġthat":748,"Ġtoward":749,"Ġbench":750,"Ġfri":751,"door":752,"four":753,"Ġtra":754,"Ġcamp":755,"Ġbasketball":756,"ach":757,"Ġhor":758,"ity":759,"Ġleap":760,"Ġsnowboard":761,"Ġsidewalk":762,"Ġpur":763,"Ġsc":764,"gs":765,"nder":766,"Ġcove":767,"Ġcovered":768,"Ġsit":769,"ist":770,"ey":771,"Ġgame":772,"Ġold":773,"Ġground":774,"Ġperf":775,"ne":776,"ating":777,"Ġgrey":778,"Ġunder":779,"rest":780,"Ġsomething":781,"Ġperform":782,"ans":783,"Ġbase":784,"Ġha":785,"Ġget":786,"Ġmotorc":787,"Ġbeing":788,"Ġfence":789,"Ġob":790,"Ġkiss":791,"Ġfriable":792,"Ġflo":793,"Ġpath":794,"ra":795,"Ġcom":796,"Ġlake":797,"ses":798,"qu":799,"ess":800,"Ġtrack":801,"em":802,"Ġwalk":803,"age":804,"ted":805,"ign":806,"Ġcon":807,"Ġte":808,"Ġcity":809,"Ġri":810,"Ġlong":811,"veral":812,"Ġwave":813,"akes":814,"Ġboat":815,"Ġhigh":816,"Ġpurple":817,"Ġpi":818,"Ġoutdoor":819,"iff":820,"are":821,"Ġsign":822,"Ġbar":823,"Ġdan":824,"ped":825,"ish":826,"Ġsurf":827,"Ġslide":828,"Ġcoat":829,"Ġad":830,"Ġstri":831,"Ġsmi":832,"Ġde":833,"Ġtre":834,"ast":835,"ller":836,"Ġthem":837,"ird":838,"Ġbaseball":839,"Ġlosing":840,"Ġbr":841,"Ġbig":842,"lash":843,"Ġwatching":844,"Ġskateboarder":845,"ph":846,"Ġread":847,"eans":848,"Ġwooden":849,"ug":850,"Ġplayers":851,"ces":852,"glasses":853,"Ġdark":854,"Ġsunglasses":855,"Ġwatches":856,"ant":857,"bb":858,"Ġsplash":859,"Ġmotorcycle":860,"there":861,"Ġsuit":862,"Ġlea":863,"Ġlook":864,"Ġph":865,"yc":866,"ire":867,"Ġparts":868,"Ġtrees":869,"Ġtable":870,"Ġhan":871,"urf":872,"Ġfla":873,"ries":874,"Ġag":875,"Ġflow":876,"Ġskin":877,"Ġriver":878,"Ġbes":879,"Ġrocks":880,"Ġride":881,"Ġbit":882,"Ġrope":883,"ew":884,"Ġam":885,"Ġcoll":886,"eet":887,"Ġcouple":888,"Ġtowards":889,"Ġaf":890,"Ġbal":891,"boy":892,"Ġarms":893,"Ġbeside":894,"Ġno":895,"Ġhands":896,"ash":897,"Ġlimb":898,"Ġcap":899,"Ġcost":900,"Ġrocky":901,"Ġchas":902,"Ġwhe":903,"Ġhorse":904,"ive":905,"ps":906,"Ġmid":907,"Ġbird":908,"eam":909,"ale":910,"Ġbag":911,"Ġop":912,"dle":913,"Ġthrow":914,"ow":915,"Ġdri":916,"Ġdoes":917,"Ġhe":918,"Ġsto":919,"Ġkick":920,"child":921,"urful":922,"by":923,"several":924,"Ġcolourful":925,"od":926,"bove":927,"ect":928,"Ġabove":929,"Ġoutf":930,"ckey":931,"Ġjeans":932,"Ġice":933,"ment":934,"sta":935,"wom":936,"Ġracing":937,"Ġcolored":938,"Ġwho":939,"Ġstriped":940,"Ġopen":941,"ft":942,"ia":943,"itar":944,"Ġsnowboarder":945,"Ġadul":946,"Ġthree":947,"Ġmountains":948,"Ġimp":949,"uck":950,"Ġfight":951,"Ġpose":952,"ired":953,"Ġset":954,"Ġskies":955,"uit":956,"Ġcostum":957,"ness":958,"pack":959,"Ġwind":960,"Ġsurround":961,"ake":962,"Ġcan":963,"Ġglasses":964,"Ġonto":965,"Ġwoods":966,"Ġbackpack":967,"Ġcollar":968,"Ġimpair":969,"oto":970,"Ġteam":971,"Ġtaking":972,"Ġlady":973,"young":974,"Ġtal":975,"Ġmar":976,"Ġcliff":977,"Ġphoto":978,"Ġcross":979,"Ġolder":980,"Ġagain":981,"ok":982,"Ġleaps":983,"Ġhaired":984,"Ġlimbs":985,"ry":986,"out":987,"Ġagainst":988,"nde":989,"Ġbody":990,"Ġplayground":991,"Ġyard":992,"Ġbox":993,"Ġchair":994,"Ġbus":995,"Ġmud":996,"ding":997,"ull":998,"aker":999,"Ġstep":1000,"ats":1001,"Ġled":1002,"Ġsuff":1003,"Ġperforming":1004,"Ġfish":1005,"Ġboard":1006,"Ġshore":1007,"pping":1008,"Ġguy":1009,"Ġba":1010,"Ġsmiles":1011,"Ġafter":1012,"ub":1013,"Ġblonde":1014,"Ġpain":1015,"Ġlaying":1016,"tt":1017,"umb":1018,"Ġhu":1019,"lling":1020,"Ġguitar":1021,"phone":1022,"Ġchasing":1023,"hou":1024,"ip":1025,"Ġspr":1026,"Ġrider":1027,"Ġswims":1028,"Ġmiddle":1029,"some":1030,"Ġasia":1031,"Ġlight":1032,"woman":1033,"Ġfountain":1034,"very":1035,"Ġhockey":1036,"Ġwheel":1037,"ears":1038,"Ġsurrounded":1039,"rap":1040,"ation":1041,"Ġsuffer":1042,"Ġbrick":1043,"Ġga":1044,"Ġgra":1045,"Ġsky":1046,"Ġstair":1047,"uring":1048,"Ġblood":1049,"ner":1050,"oking":1051,"Ġnight":1052,"ade":1053,"dd":1054,"Ġed":1055,"Ġwet":1056,"Ġpoin":1057,"Ġflying":1058,"Ġinside":1059,"Ġcas":1060,"Ġshow":1061,"Ġbrid":1062,"Ġothers":1063,"Ġgold":1064,"Ġedge":1065,"girl":1066,"Ġaway":1067,"Ġbed":1068,"Ġduring":1069,"Ġtakes":1070,"Ġfire":1071,"Ġshe":1072,"Ġtrying":1073,"uff":1074,"Ġab":1075,"Ġkid":1076,"Ġbri":1077,"urn":1078,"Ġwait":1079,"Ġhanging":1080,"ice":1081,"Ġwrest":1082,"ugh":1083,"Ġbaker":1084,"Ġfall":1085,"Ġtoller":1086,"dog":1087,"Ġvery":1088,"Ġforest":1089,"Ġobj":1090,"Ġfloor":1091,"Ġoutfit":1092,"Ġpre":1093,"Ġhou":1094,"Ġdrin":1095,"Ġbright":1096,"Ġen":1097,"ched":1098,"Ġgray":1099,"Ġpole":1100,"Ġsurfboard":1101,"children":1102,"Ġpro":1103,"Ġlaugh":1104,"ung":1105,"Ġobject":1106,"Ġex":1107,"Ġtrail":1108,"Ġtalking":1109,"little":1110,"Ġsteps":1111,"ru":1112,"Ġmaking":1113,"iding":1114,"Ġnearby":1115,"Ġche":1116,"Ġpast":1117,"nds":1118,"allow":1119,"Ġline":1120,"lst":1121,"est":1122,"Ġwhilst":1123,"Ġtrain":1124,"Ġall":1125,"Ġban":1126,"Ġgoing":1127,"Ġwindow":1128,"Ġabout":1129,"ance":1130,"Ġlif":1131,"Ġleash":1132,"Ġpush":1133,"Ġflowers":1134,"mb":1135,"Ġtall":1136,"ycling":1137,"ved":1138,"Ġbear":1139,"Ġswinging":1140,"Ġcomp":1141,"we":1142,"Ġday":1143,"Ġpart":1144,"Ġeating":1145,"Ġclothe":1146,"Ġdancing":1147,"Ġleaves":1148,"imal":1149,"Ġhard":1150,"Ġhood":1151,"Ġjers":1152,"Ġposes":1153,"Ġwaves":1154,"Ġbridge":1155,"Ġjersey":1156,"ated":1157,"Ġcow":1158,"Ġlegs":1159,"ily":1160,"Ġcostume":1161,"ud":1162,"Ġbott":1163,"ching":1164,"Ġey":1165,"ny":1166,"ges":1167,"person":1168,"Ġanimal":1169,"Ġvi":1170,"black":1171,"Ġwin":1172,"Ġstar":1173,"temp":1174,"Ġroom":1175,"stic":1176,"Ġrail":1177,"Ġleaping":1178,"ol":1179,"Ġcour":1180,"Ġclothes":1181,"ings":1182,"Ġcourse":1183,"Ġshallow":1184,"Ġobsta":1185,"Ġobstacle":1186,"her":1187,"Ġsle":1188,"rel":1189,"erman":1190,"Ġgi":1191,"Ġattemp":1192,"Ġgoal":1193,"ction":1194,"Ġfighting":1195,"Ġhouse":1196,"vel":1197,"Ġblow":1198,"Ġscar":1199,"Ġplastic":1200,"Ġlike":1201,"Ġbites":1202,"aper":1203,"Ġbubb":1204,"Ġclothing":1205,"Ġstat":1206,"Ġstone":1207,"Ġatt":1208,"Ġtrun":1209,"Ġcarries":1210,"Ġsplashing":1211,"ial":1212,"Ġve":1213,"Ġpl":1214,"Ġgetting":1215,"Ġbet":1216,"Ġgun":1217,"Ġshirts":1218,"cre":1219,"sc":1220,"Ġdist":1221,"Ġland":1222,"Ġnumb":1223,"Ġlean":1224,"Ġrailing":1225,"Ġrest":1226,"Ġready":1227,"Ġmet":1228,"Ġtire":1229,"Ġteen":1230,"Ġdeep":1231,"ween":1232,"Ġbetween":1233,"Ġbat":1234,"Ġcatches":1235,"Ġsliding":1236,"Ġves":1237,"ley":1238,"ides":1239,"Ġwor":1240,"Ġcor":1241,"Ġoverlo":1242,"Ġstream":1243,"Ġreach":1244,"Ġclimber":1245,"Ġadult":1246,"ail":1247,"this":1248,"Ġtramp":1249,"ycl":1250,"Ġstore":1251,"Ġlawn":1252,"Ġskateboarding":1253,"Ġbathing":1254,"zz":1255,"Ġtong":1256,"Ġsweet":1257,"Ġconcre":1258,"Ġhuge":1259,"Ġsweeter":1260,"Ġconcrete":1261,"five":1262,"Ġdes":1263,"Ġfem":1264,"Ġwaiting":1265,"Ġwinter":1266,"Ġtrampling":1267,"Ġturn":1268,"Ġgear":1269,"Ġtele":1270,"Ġmetal":1271,"Ġsides":1272,"Ġthey":1273,"Ġfour":1274,"many":1275,"fla":1276,"Ġwears":1277,"Ġroller":1278,"Ġuniforms":1279,"bor":1280,"Ġor":1281,"Ġcur":1282,"Ġret":1283,"ws":1284,"Ġal":1285,"Ġdis":1286,"nding":1287,"Ġfol":1288,"Ġgreyhou":1289,"Ġmale":1290,"Ġhar":1291,"ppy":1292,"Ġtongue":1293,"men":1294,"Ġpulling":1295,"Ġpol":1296,"Ġcatching":1297,"Ġsandy":1298,"lled":1299,"Ġhit":1300,"Ġlot":1301,"Ġupside":1302,"Ġbackward":1303,"Ġthrowing":1304,"Ġstairs":1305,"Ġgolden":1306,"Ġdistance":1307,"grap":1308,"Ġsil":1309,"Ġdoor":1310,"ican":1311,"Ġdrink":1312,"Ġcourt":1313,"iv":1314,"Ġput":1315,"Ġmakes":1316,"Ġtries":1317,"Ġhal":1318,"Ġgets":1319,"Ġfishing":1320,"Ġcases":1321,"Ġbeard":1322,"Ġtelephone":1323,"ys":1324,"Ġstage":1325,"Ġlip":1326,"Ġsmile":1327,"mm":1328,"Ġapp":1329,"Ġwad":1330,"ell":1331,"Ġski":1332,"Ġflies":1333,"Ġphotograp":1334,"Ġwrestle":1335,"us":1336,"ric":1337,"Ġcart":1338,"Ġcouch":1339,"Ġoverlooking":1340,"Ġspo":1341,"Ġnumber":1342,"Ġboo":1343,"Ġsub":1344,"Ġamer":1345,"Ġbusy":1346,"de":1347,"hicle":1348,"Ġkne":1349,"Ġwooded":1350,"Ġclose":1351,"Ġtricks":1352,"Ġreading":1353,"Ġsplashed":1354,"Ġvehicle":1355,"set":1356,"Ġart":1357,"Ġpass":1358,"Ġbow":1359,"Ġwaters":1360,"Ġdrinking":1361,"Ġtrunks":1362,"Ġsi":1363,"Ġbre":1364,"Ġopp":1365,"ank":1366,"Ġlying":1367,"Ġneck":1368,"Ġflag":1369,"Ġfemale":1370,"jo":1371,"Ġumb":1372,"Ġsurging":1373,"Ġpudd":1374,"Ġshortness":1375,"Ġadults":1376,"rella":1377,"Ġvest":1378,"Ġumbrella":1379,"Ġpuddles":1380,"fall":1381,"Ġequ":1382,"Ġpuppy":1383,"Ġhorses":1384,"Ġprep":1385,"Ġharness":1386,"Ġsn":1387,"Ġslo":1388,"oner":1389,"Ġpond":1390,"Ġliking":1391,"Ġlaughing":1392,"Ġcompet":1393,"Ġamerican":1394,"ie":1395,"sm":1396,"Ġcle":1397,"Ġru":1398,"Ġright":1399,"Ġshou":1400,"Ġswe":1401,"Ġleaning":1402,"Ġdock":1403,"Ġshopping":1404,"Ġsunset":1405,"ement":1406,"Ġeyes":1407,"Ġfollow":1408,"eed":1409,"Ġcig":1410,"Ġfood":1411,"att":1412,"ition":1413,"Ġrain":1414,"lder":1415,"ons":1416,"rie":1417,"Ġspray":1418,"Ġview":1419,"Ġpit":1420,"Ġfur":1421,"alle":1422,"elder":1423,"Ġsooner":1424,"Ġhats":1425,"ways":1426,"brown":1427,"pla":1428,"Ġpaper":1429,"Ġcount":1430,"Ġmas":1431,"Ġmake":1432,"Ġhug":1433,"Ġwaterfall":1434,"Ġlog":1435,"Ġshoes":1436,"Ġnose":1437,"someone":1438,"Ġhalf":1439,"ium":1440,"ents":1441,"Ġleft":1442,"Ġrais":1443,"ult":1444,"Ġcoming":1445,"Ġcano":1446,"Ġenjo":1447,"Ġlife":1448,"aw":1449,"less":1450,"aray":1451,"Ġfeet":1452,"Ġtruck":1453,"ipment":1454,"Ġbubbles":1455,"Ġequipment":1456,"bi":1457,"vent":1458,"ater":1459,"Ġstung":1460,"urant":1461,"Ġkaray":1462,"Ġresta":1463,"Ġblock":1464,"Ġseveral":1465,"ruct":1466,"Ġscarf":1467,"Ġretrie":1468,"Ġrestaurant":1469,"ace":1470,"nel":1471,"iti":1472,"Ġjes":1473,"elf":1474,"amily":1475,"Ġform":1476,"Ġpolice":1477,"Ġsweats":1478,"Ġelder":1479,"Ġsqu":1480,"Ġcu":1481,"ator":1482,"Ġbook":1483,"ones":1484,"ous":1485,"Ġmuzz":1486,"Ġgraff":1487,"Ġguns":1488,"Ġtent":1489,"cket":1490,"Ġhardly":1491,"Ġmask":1492,"Ġgraffiti":1493,"ced":1494,"thered":1495,"Ġfull":1496,"Ġstating":1497,"Ġboth":1498,"Ġspor":1499,"Ġplan":1500,"Ġcigare":1501,"Ġcanoe":1502,"bla":1503,"line":1504,"Ġpack":1505,"Ġmon":1506,"Ġtake":1507,"Ġste":1508,"epher":1509,"Ġbiting":1510,"Ġsetting":1511,"ube":1512,"epherd":1513,"co":1514,"fe":1515,"Ġstruct":1516,"Ġrow":1517,"Ġshepherd":1518,"Ġkit":1519,"Ġmus":1520,"Ġmuddy":1521,"Ġgather":1522,"Ġsweatshirt":1523,"Ġelderly":1524,"Ġstructure":1525,"iving":1526,"Ġrug":1527,"str":1528,"app":1529,"raw":1530,"Ġfalling":1531,"Ġsleep":1532,"Ġjesuit":1533,"cor":1534,"Ġsing":1535,"Ġband":1536,"Ġbare":1537,"Ġinfla":1538,"ists":1539,"Ġfamily":1540,"Ġlow":1541,"Ġlone":1542,"Ġdry":1543,"Ġflags":1544,"ger":1545,"mo":1546,"ert":1547,"Ġstate":1548,"Ġbou":1549,"Ġskirt":1550,"Ġraft":1551,"inkled":1552,"Ġcrowded":1553,"Ġbags":1554,"Ġslope":1555,"ian":1556,"Ġcr":1557,"Ġtun":1558,"Ġtank":1559,"Ġgor":1560,"Ġbucket":1561,"Ġdresses":1562,"Ġgreyhound":1563,"Ġoppo":1564,"gy":1565,"tte":1566,"Ġindoor":1567,"room":1568,"Ġhiding":1569,"Ġele":1570,"Ġledge":1571,"Ġrollerbla":1572,"Ġcigarette":1573,"ore":1574,"ines":1575,"Ġcrou":1576,"Ġpile":1577,"ere":1578,"ping":1579,"whi":1580,"Ġear":1581,"Ġsa":1582,"Ġwar":1583,"Ġcement":1584,"Ġfaces":1585,"Ġpie":1586,"Ġflower":1587,"Ġdriving":1588,"Ġsprinkled":1589,"borne":1590,"Ġgorges":1591,"foot":1592,"ty":1593,"Ġdiving":1594,"Ġcre":1595,"Ġsupp":1596,"Ġgoes":1597,"Ġhave":1598,"Ġdance":1599,"Ġbottle":1600,"Ġqu":1601,"Ġcycling":1602,"Ġmark":1603,"Ġfing":1604,"unch":1605,"lls":1606,"Ġparking":1607,"Ġairborne":1608,"aked":1609,"ares":1610,"Ġballo":1611,"Ġkicking":1612,"Ġcostumes":1613,"mmable":1614,"small":1615,"allen":1616,"Ġmusic":1617,"Ġinflammable":1618,"anket":1619,"Ġduck":1620,"Ġgerman":1621,"Ġring":1622,"Ġblanket":1623,"Ġbull":1624,"Ġkay":1625,"Ġsomeone":1626,"Ġstop":1627,"Ġsubways":1628,"Ġsports":1629,"Ġfun":1630,"Ġstr":1631,"Ġtou":1632,"Ġshaking":1633,"Ġballs":1634,"Ġleg":1635,"Ġbuildings":1636,"Ġpaint":1637,"Ġteenage":1638,"rophone":1639,"Ġmic":1640,"Ġmult":1641,"Ġfallen":1642,"Ġfore":1643,"Ġscen":1644,"Ġpoints":1645,"Ġtunnel":1646,"Ġmicrophone":1647,"pes":1648,"ven":1649,"Ġears":1650,"Ġglo":1651,"Ġfr":1652,"Ġhapp":1653,"Ġstuff":1654,"Ġmany":1655,"Ġspea":1656,"ban":1657,"ins":1658,"Ġpad":1659,"wor":1660,"rier":1661,"Ġparade":1662,"Ġjackets":1663,"Ġcont":1664,"Ġbalan":1665,"Ġgathered":1666,"vers":1667,"zed":1668,"Ġtu":1669,"Ġtack":1670,"Ġfet":1671,"ally":1672,"Ġsmoking":1673,"Ġsmaller":1674,"Ġlips":1675,"Ġleather":1676,"Ġthrows":1677,"Ġchairs":1678,"Ġpointing":1679,"Ġsilver":1680,"Ġboots":1681,"Ġpiece":1682,"der":1683,"Ġpet":1684,"Ġheld":1685,"ase":1686,"ural":1687,"Ġlead":1688,"Ġevent":1689,"Ġsunny":1690,"Ġpictures":1691,"Ġmotorcycl":1692,"Ġpushing":1693,"band":1694,"sk":1695,"ust":1696,"Ġwr":1697,"Ġbea":1698,"Ġbut":1699,"Ġbran":1700,"let":1701,"aring":1702,"Ġhome":1703,"ches":1704,"ony":1705,"Ġnet":1706,"Ġchew":1707,"Ġunderw":1708,"Ġsurface":1709,"Ġkicks":1710,"Ġpainted":1711,"uffy":1712,"Ġspot":1713,"attoo":1714,"ators":1715,"mer":1716,"Ġshi":1717,"Ġcat":1718,"hill":1719,"ghts":1720,"Ġcover":1721,"Ġusing":1722,"Ġoutfits":1723,"Ġcowboy":1724,"white":1725,"ix":1726,"Ġtattoo":1727,"ong":1728,"ager":1729,"Ġstatue":1730,"Ġstuffed":1731,"lies":1732,"ump":1733,"Ġglass":1734,"Ġgrind":1735,"Ġcars":1736,"Ġbicycling":1737,"Ġsticks":1738,"Ġfluffy":1739,"Ġmarket":1740,"Ġswimsuit":1741,"Ġblowing":1742,"Ġsteep":1743,"lic":1744,"Ġround":1745,"Ġdig":1746,"Ġtug":1747,"Ġtube":1748,"issing":1749,"Ġfan":1750,"Ġsuits":1751,"Ġvol":1752,"Ġdrinks":1753,"Ġscene":1754,"Ġbro":1755,"Ġown":1756,"Ġpea":1757,"Ġmer":1758,"Ġbush":1759,"Ġraces":1760,"Ġshot":1761,"Ġseated":1762,"Ġcrossing":1763,"Ġsheep":1764,"Ġwresting":1765,"leyball":1766,"Ġwork":1767,"Ġsleeping":1768,"Ġvolleyball":1769,"br":1770,"Ġap":1771,"Ġhind":1772,"edding":1773,"ape":1774,"Ġcheer":1775,"Ġcorner":1776,"Ġdispla":1777,"ival":1778,"Ġphotograph":1779,"Ġfurry":1780,"Ġhugging":1781,"Ġmuzzle":1782,"Ġrugby":1783,"dies":1784,"ige":1785,"tched":1786,"Ġsay":1787,"Ġsame":1788,"Ġind":1789,"Ġpan":1790,"Ġtears":1791,"Ġplat":1792,"Ġspeed":1793,"Ġemp":1794,"Ġdrum":1795,"ached":1796,"Ġhangs":1797,"Ġbald":1798,"Ġbath":1799,"Ġattempting":1800,"Ġrubb":1801,"Ġretrieved":1802,"Ġsupplies":1803,"rack":1804,"Ġbunch":1805,"Ġpr":1806,"Ġpick":1807,"Ġmeans":1808,"Ġfew":1809,"Ġlit":1810,"urban":1811,"Ġkissing":1812,"phones":1813,"Ġamong":1814,"Ġparty":1815,"Ġstaring":1816,"Ġgives":1817,"Ġattempts":1818,"Ġmarked":1819,"ged":1820,"Ġsad":1821,"Ġcut":1822,"Ġgard":1823,"Ġfair":1824,"Ġhers":1825,"chool":1826,"Ġlick":1827,"Ġshad":1828,"stand":1829,"ime":1830,"Ġfilled":1831,"Ġlays":1832,"Ġstates":1833,"Ġwading":1834,"rican":1835,"Ġcompetition":1836,"Ġcup":1837,"Ġgarden":1838,"nic":1839,"Ġway":1840,"Ġinstr":1841,"Ġcand":1842,"Ġbelow":1843,"Ġend":1844,"Ġfacing":1845,"Ġphone":1846,"Ġbottom":1847,"Ġdesert":1848,"Ġsniff":1849,"Ġclear":1850,"Ġmotorcyclist":1851,"Ġinstrum":1852,"kiss":1853,"sed":1854,"Ġwings":1855,"Ġtro":1856,"Ġfast":1857,"Ġwide":1858,"look":1859,"stre":1860,"Ġbeige":1861,"Ġshop":1862,"Ġheads":1863,"Ġsticking":1864,"Ġfenced":1865,"Ġwheels":1866,"Ġteenager":1867,"ered":1868,"ose":1869,"use":1870,"Ġstro":1871,"Ġgrm":1872,"utif":1873,"ama":1874,"Ġspect":1875,"Ġchain":1876,"Ġsnowboarding":1877,"Ġattached":1878,"Ġunderwater":1879,"utiful":1880,"cet":1881,"ned":1882,"Ġrough":1883,"Ġschool":1884,"Ġlin":1885,"Ġjo":1886,"Ġrolling":1887,"Ġshoo":1888,"Ġtry":1889,"Ġracet":1890,"Ġpoles":1891,"Ġeats":1892,"Ġoffic":1893,"Ġwaving":1894,"Ġheadband":1895,"yclists":1896,"Ġcountry":1897,"lookers":1898,"Ġracetrack":1899,"form":1900,"spe":1901,"six":1902,"ise":1903,"als":1904,"Ġwhich":1905,"ideo":1906,"ical":1907,"Ġwake":1908,"Ġvideo":1909,"Ġfloating":1910,"ract":1911,"Ġdances":1912,"Ġafrican":1913,"Ġtalks":1914,"ully":1915,"Ġgravel":1916,"Ġspectators":1917,"ales":1918,"fully":1919,"haw":1920,"ute":1921,"ught":1922,"Ġsea":1923,"Ġjust":1924,"eath":1925,"ico":1926,"Ġladies":1927,"Ġmoto":1928,"Ġseat":1929,"Ġfrie":1930,"Ġpier":1931,"Ġsigns":1932,"Ġcheck":1933,"Ġprepares":1934,"Ġfunny":1935,"Ġtula":1936,"Ġempty":1937,"dling":1938,"ier":1939,"Ġdire":1940,"Ġcard":1941,"Ġmed":1942,"nded":1943,"Ġplaid":1944,"Ġhits":1945,"Ġthose":1946,"ried":1947,"Ġdownhill":1948,"Ġparach":1949,"Ġpost":1950,"Ġmohaw":1951,"Ġhandstand":1952,"Ġtoys":1953,"Ġpub":1954,"Ġcloud":1955,"Ġcolor":1956,"Ġpushes":1957,"udi":1958,"Ġhalfway":1959,"Ġbranch":1960,"Ġdisplay":1961,"Ġmotocross":1962,"Ġmohawk":1963,"ton":1964,"Ġurban":1965,"ana":1966,"Ġme":1967,"Ġtur":1968,"Ġonlookers":1969,"Ġnaked":1970,"vert":1971,"vement":1972,"Ġbeg":1973,"dogs":1974,"Ġpavement":1975,"Ġmotorbi":1976,"Ġhaving":1977,"Ġwaddling":1978,"Ġshoulder":1979,"Ġbeautiful":1980,"Ġplatform":1981,"Ġpublic":1982,"ee":1983,"group":1984,"Ġpul":1985,"Ġdiff":1986,"Ġter":1987,"Ġthrown":1988,"Ġskateboards":1989,"ricket":1990,"ffic":1991,"Ġfloat":1992,"Ġbirds":1993,"Ġpainting":1994,"Ġshowing":1995,"scape":1996,"Ġlandscape":1997,"erent":1998,"Ġgloves":1999,"stretched":2000,"Ġdifferent":2001,"oke":2002,"inning":2003,"Ġpract":2004,"Ġti":2005,"ite":2006,"Ġrap":2007,"Ġoutstretched":2008,"Ġcarp":2009,"Ġnews":2010,"Ġtraffic":2011,"Ġbride":2012,"Ġreads":2013,"Ġreaching":2014,"Ġcream":2015,"Ġchewing":2016,"Ġwakeboard":2017,"Ġrapid":2018,"eth":2019,"fore":2020,"ious":2021,"ush":2022,"Ġcree":2023,"Ġclass":2024,"Ġcricket":2025,"lead":2026,"Ġtie":2027,"Ġran":2028,"Ġrural":2029,"ence":2030,"chen":2031,"Ġfive":2032,"Ġbeer":2033,"Ġteeth":2034,"Ġbars":2035,"Ġdrives":2036,"girls":2037,"Ġbanana":2038,"Ġslee":2039,"Ġresting":2040,"Ġbowl":2041,"Ġkitchen":2042,"Ġcrouched":2043,"case":2044,"head":2045,"large":2046,"nival":2047,"so":2048,"vy":2049,"Ġhoo":2050,"Ġwire":2051,"key":2052,"Ġbefore":2053,"Ġcarnival":2054,"Ġflight":2055,"Ġbank":2056,"Ġreaches":2057,"Ġwatersk":2058,"Ġbarefoot":2059,"Ġopposing":2060,"Ġballoon":2061,"Ġsays":2062,"Ġnewsp":2063,"ble":2064,"clo":2065,"ds":2066,"ĠĠ":2067,"Ġwedding":2068,"Ġmatch":2069,"ette":2070,"Ġyounger":2071,"Ġcol":2072,"top":2073,"ils":2074,"Ġlap":2075,"Ġwaits":2076,"ular":2077,"Ġlies":2078,"Ġpaved":2079,"tern":2080,"Ġdecor":2081,"Ġexp":2082,"Ġcurly":2083,"Ġplants":2084,"Ġtackle":2085,"Ġcarpet":2086,"Ġcreek":2087,"fs":2088,"me":2089,"rain":2090,"Ġcir":2091,"Ġris":2092,"Ġstad":2093,"Ġsmoke":2094,"Ġstret":2095,"Ġmother":2096,"Ġdirty":2097,"Ġheadphones":2098,"Ġsee":2099,"ession":2100,"Ġpipe":2101,"anta":2102,"Ġblows":2103,"Ġphotographer":2104,"Ġformation":2105,"Ġlined":2106,"Ġstadium":2107,"gre":2108,"land":2109,"rist":2110,"Ġchi":2111,"Ġcraw":2112,"Ġmil":2113,"Ġhea":2114,"irst":2115,"ese":2116,"lders":2117,"Ġthird":2118,"Ġmoving":2119,"Ġdrag":2120,"Ġhelmets":2121,"Ġscre":2122,"race":2123,"Ġanimals":2124,"Ġbearded":2125,"Ġshoulders":2126,"Ġforeground":2127,"Ġbushes":2128,"Ġprin":2129,"Ġsadd":2130,"des":2131,"kes":2132,"mas":2133,"ane":2134,"ery":2135,"Ġdead":2136,"alm":2137,"ates":2138,"eling":2139,"Ġmouths":2140,"Ġchrist":2141,"Ġlights":2142,"akers":2143,"Ġseen":2144,"Ġdeck":2145,"Ġamuse":2146,"Ġchase":2147,"women":2148,"Ġfalls":2149,"Ġknees":2150,"Ġsinging":2151,"Ġbounding":2152,"Ġfinger":2153,"Ġpaddle":2154,"Ġcovering":2155,"Ġshadow":2156,"Ġinstruments":2157,"Ġpulled":2158,"Ġamusement":2159,"fet":2160,"gu":2161,"gle":2162,"Ġac":2163,"Ġath":2164,"Ġpatch":2165,"Ġdro":2166,"Ġmach":2167,"Ġtalk":2168,"Ġhay":2169,"Ġrunner":2170,"elling":2171,"Ġkn":2172,"Ġemb":2173,"Ġtravel":2174,"Ġwhere":2175,"Ġhitting":2176,"Ġwrit":2177,"Ġspotted":2178,"Ġstrolled":2179,"Ġshooting":2180,"Ġmotorbike":2181,"fting":2182,"Ġent":2183,"Ġaudi":2184,"Ġserf":2185,"ron":2186,"Ġcla":2187,"Ġgl":2188,"Ġgar":2189,"Ġfar":2190,"Ġfly":2191,"Ġropes":2192,"pped":2193,"Ġguard":2194,"Ġboats":2195,"Ġstaircase":2196,"Ġbrightly":2197,"Ġputting":2198,"Ġneckla":2199,"Ġpreparing":2200,"Ġnewspaper":2201,"Ġchristmas":2202,"Ġaudience":2203,"na":2204,"tion":2205,"tial":2206,"Ġpat":2207,"Ġden":2208,"Ġgate":2209,"ens":2210,"Ġplace":2211,"eather":2212,"Ġshakes":2213,"Ġhole":2214,"icip":2215,"Ġref":2216,"Ġalongside":2217,"Ġclown":2218,"Ġpurse":2219,"Ġprof":2220,"Ġcomput":2221,"Ġgiant":2222,"Ġbubble":2223,"Ġpitch":2224,"Ġraises":2225,"Ġgrinding":2226,"Ġcheerlead":2227,"Ġpractic":2228,"Ġhoofs":2229,"Ġsaddles":2230,"back":2231,"Ġser":2232,"Ġswor":2233,"Ġsanta":2234,"Ġwrap":2235,"read":2236,"ering":2237,"arger":2238,"Ġmem":2239,"Ġmade":2240,"Ġplate":2241,"Ġlarger":2242,"Ġyou":2243,"Ġnat":2244,"Ġgrab":2245,"boat":2246,"Ġcold":2247,"Ġrela":2248,"Ġpulls":2249,"quet":2250,"Ġtracks":2251,"ashing":2252,"Ġmartial":2253,"Ġprote":2254,"Ġeye":2255,"Ġsilhou":2256,"Ġappears":2257,"Ġfollows":2258,"Ġcounter":2259,"Ġdigging":2260,"Ġdirection":2261,"Ġterrain":2262,"Ġserfs":2263,"ho":2264,"ill":2265,"Ġdust":2266,"Ġstraw":2267,"els":2268,"Ġrode":2269,"stru":2270,"llers":2271,"Ġparas":2272,"Ġhandra":2273,"Ġalone":2274,"Ġsli":2275,"Ġadvert":2276,"Ġhooded":2277,"Ġgiving":2278,"Ġgreyhounds":2279,"Ġappro":2280,"Ġbreak":2281,"Ġenjoys":2282,"Ġrowing":2283,"Ġkite":2284,"Ġducks":2285,"Ġbalancing":2286,"Ġdenis":2287,"Ġhandrails":2288,"Ġadvertis":2289,"gon":2290,"iz":2291,"snow":2292,"self":2293,"Ġsla":2294,"Ġsail":2295,"Ġinter":2296,"Ġmat":2297,"Ġtw":2298,"Ġty":2299,"Ġstation":2300,"Ġtow":2301,"Ġtoss":2302,"Ġplayed":2303,"eds":2304,"Ġrob":2305,"Ġshag":2306,"Ġbacks":2307,"aped":2308,"Ġspinning":2309,"Ġeas":2310,"Ġpicnic":2311,"Ġhimself":2312,"Ġconstru":2313,"Ġribb":2314,"dder":2315,"Ġshows":2316,"Ġparticip":2317,"Ġbackwards":2318,"Ġputs":2319,"Ġkneeling":2320,"Ġindoors":2321,"Ġmulti":2322,"Ġmultico":2323,"Ġcandles":2324,"Ġparachute":2325,"Ġmulticolo":2326,"ean":2327,"fire":2328,"ser":2329,"ror":2330,"chair":2331,"Ġplayfully":2332,"Ġjung":2333,"Ġjumped":2334,"Ġroo":2335,"Ġskir":2336,"Ġcamel":2337,"Ġbite":2338,"itary":2339,"Ġgrafting":2340,"Ġlaughs":2341,"Ġviol":2342,"Ġsquat":2343,"Ġelect":2344,"Ġwarm":2345,"Ġquick":2346,"skateboard":2347,"Ġpeace":2348,"Ġsniffing":2349,"Ġclouds":2350,"Ġnecklace":2351,"Ġrelax":2352,"Ġapproach":2353,"Ġshaggy":2354,"Ġjungle":2355,"blo":2356,"ec":2357,"neath":2358,"Ġdin":2359,"Ġthere":2360,"Ġce":2361,"Ġtick":2362,"Ġdone":2363,"Ġladder":2364,"Ġsuspe":2365,"Ġpull":2366,"Ġcloth":2367,"Ġswimmer":2368,"Ġitem":2369,"Ġunderneath":2370,"Ġhang":2371,"Ġcollide":2372,"Ġbackpacks":2373,"okes":2374,"scar":2375,"Ġdoorway":2376,"Ġpassing":2377,"Ġenjoying":2378,"Ġpoliceman":2379,"feree":2380,"Ġsafet":2381,"Ġfingers":2382,"Ġhappy":2383,"Ġowner":2384,"Ġlicking":2385,"Ġrisk":2386,"Ġwriting":2387,"Ġmemb":2388,"Ġconstruction":2389,"Ġsuspended":2390,"Ġsafety":2391,"ggy":2392,"hood":2393,"oc":2394,"que":2395,"sel":2396,"ured":2397,"wh":2398,"Ġinc":2399,"Ġteach":2400,"Ġtak":2401,"Ġbon":2402,"Ġboun":2403,"ident":2404,"Ġnon":2405,"Ġbeen":2406,"Ġmound":2407,"Ġwagon":2408,"Ġleaf":2409,"Ġskinned":2410,"Ġdrive":2411,"Ġcorn":2412,"Ġcompeting":2413,"Ġplane":2414,"Ġoppos":2415,"Ġfetch":2416,"Ġpanama":2417,"Ġmachine":2418,"Ġviolin":2419,"op":2420,"tail":2421,"ym":2422,"yard":2423,"Ġpen":2424,"Ġpig":2425,"Ġpony":2426,"Ġcone":2427,"art":2428,"Ġmir":2429,"Ġmur":2430,"Ġstump":2431,"oufla":2432,"Ġriders":2433,"Ġairp":2434,"Ġspread":2435,"Ġreferee":2436,"Ġsum":2437,"Ġcamoufla":2438,"Ġheadscar":2439,"Ġpaws":2440,"Ġhillside":2441,"Ġpige":2442,"Ġbarrier":2443,"Ġcoats":2444,"boys":2445,"Ġwheelchair":2446,"Ġmerrier":2447,"Ġfriend":2448,"Ġdecorated":2449,"essional":2450,"Ġscreen":2451,"Ġcomputer":2452,"Ġquickly":2453,"Ġtaken":2454,"Ġopposite":2455,"Ġmirror":2456,"Ġcamouflage":2457,"lin":2458,"these":2459,"Ġtri":2460,"Ġtail":2461,"Ġgro":2462,"itor":2463,"Ġwithout":2464,"Ġlist":2465,"Ġthumb":2466,"Ġna":2467,"Ġhot":2468,"Ġcoff":2469,"Ġlab":2470,"Ġlay":2471,"Ġemer":2472,"Ġchest":2473,"Ġnew":2474,"Ġwatched":2475,"umn":2476,"Ġcaught":2477,"Ġhelps":2478,"Ġobser":2479,"ugg":2480,"Ġdriver":2481,"Ġwinds":2482,"Ġprot":2483,"Ġtrunk":2484,"Ġspots":2485,"Ġrollerblading":2486,"Ġrollerblades":2487,"football":2488,"Ġkayaking":2489,"Ġstring":2490,"Ġbalances":2491,"aks":2492,"fro":2493,"zen":2494,"Ġbel":2495,"Ġbur":2496,"Ġdus":2497,"Ġgroom":2498,"aling":2499,"Ġrate":2500,"Ġrolls":2501,"urry":2502,"lly":2503,"Ġoverall":2504,"Ġbund":2505,"Ġforward":2506,"Ġstreets":2507,"Ġshown":2508,"Ġtents":2509,"Ġnot":2510,"Ġlanding":2511,"Ġdisc":2512,"Ġcourtyard":2513,"Ġarts":2514,"Ġformal":2515,"Ġballoons":2516,"Ġframe":2517,"Ġhomeless":2518,"Ġknit":2519,"Ġprofessional":2520,"Ġcoffee":2521,"lf":2522,"old":2523,"Ġmass":2524,"Ġgym":2525,"itten":2526,"Ġshaped":2527,"Ġhope":2528,"ster":2529,"Ġuses":2530,"Ġspid":2531,"Ġeat":2532,"ctive":2533,"Ġhelping":2534,"Ġbarking":2535,"Ġdev":2536,"Ġmotorcycles":2537,"Ġlimbers":2538,"Ġcoster":2539,"Ġchee":2540,"Ġalso":2541,"Ġsized":2542,"Ġmuzzled":2543,"Ġmonkey":2544,"Ġtouching":2545,"Ġhappily":2546,"Ġspeak":2547,"Ġfetching":2548,"Ġtrot":2549,"Ġcardboard":2550,"Ġmedium":2551,"Ġbegins":2552,"Ġrange":2553,"Ġheavy":2554,"Ġpracticing":2555,"Ġslater":2556,"skateboarder":2557,"Ġpigeons":2558,"Ġgrocer":2559,"Ġbundles":2560,"Ġgymn":2561,"cy":2562,"light":2563,"Ġke":2564,"Ġwine":2565,"Ġbakers":2566,"Ġpor":2567,"hion":2568,"leep":2569,"arrow":2570,"Ġtime":2571,"Ġfree":2572,"alley":2573,"ening":2574,"Ġjean":2575,"Ġsnowball":2576,"Ġfrozen":2577,"Ġcoach":2578,"imi":2579,"Ġfig":2580,"ility":2581,"Ġbending":2582,"Ġpow":2583,"Ġspark":2584,"Ġasleep":2585,"Ġchess":2586,"Ġmountainside":2587,"Ġsod":2588,"eaded":2589,"Ġstrip":2590,"Ġflowered":2591,"Ġbalc":2592,"ubs":2593,"Ġrests":2594,"Ġdesce":2595,"Ġsix":2596,"Ġfollowing":2597,"Ġlogging":2598,"Ġraised":2599,"Ġblocks":2600,"most":2601,"Ġcrashing":2602,"Ġpetting":2603,"Ġrubber":2604,"Ġcircle":2605,"Ġmilitary":2606,"Ġrefle":2607,"Ġheadscarf":2608,"Ġdusk":2609,"Ġsnowballs":2610,"bull":2611,"io":2612,"iing":2613,"ians":2614,"ible":2615,"lane":2616,"ual":2617,"ze":2618,"Ġim":2619,"Ġaction":2620,"Ġpir":2621,"Ġport":2622,"Ġda":2623,"Ġtight":2624,"Ġonly":2625,"Ġwhist":2626,"tered":2627,"Ġplain":2628,"Ġjet":2629,"Ġthou":2630,"Ġbend":2631,"Ġpos":2632,"Ġmountaintop":2633,"Ġgolf":2634,"Ġcake":2635,"Ġvalley":2636,"Ġhoriz":2637,"Ġbarrel":2638,"Ġbrush":2639,"Ġleaving":2640,"Ġsurrounding":2641,"Ġcrosses":2642,"Ġboxing":2643,"Ġshoreline":2644,"Ġhudd":2645,"Ġtraining":2646,"Ġattire":2647,"Ġtires":2648,"Ġturns":2649,"Ġsprayed":2650,"bile":2651,"Ġspeaking":2652,"Ġrubbles":2653,"Ġturning":2654,"Ġsleeves":2655,"Ġwrapped":2656,"front":2657,"Ġoveralls":2658,"Ġporch":2659,"Ġbalcony":2660,"Ġhorizon":2661,"Ġhuddled":2662,"cial":2663,"fa":2664,"ners":2665,"sp":2666,"uits":2667,"Ġea":2668,"Ġwell":2669,"Ġbin":2670,"Ġbeam":2671,"Ġinte":2672,"Ġcoo":2673,"Ġcent":2674,"ars":2675,"Ġge":2676,"cks":2677,"Ġstud":2678,"ided":2679,"Ġtown":2680,"Ġsnows":2681,"Ġhow":2682,"bow":2683,"apped":2684,"ables":2685,"Ġchur":2686,"ulp":2687,"Ġhandle":2688,"Ġhills":2689,"Ġflurry":2690,"Ġfoggy":2691,"Ġvar":2692,"Ġcampfire":2693,"Ġscand":2694,"Ġcomes":2695,"Ġflaps":2696,"Ġamid":2697,"Ġboardwalk":2698,"Ġwheeler":2699,"Ġexc":2700,"Ġbanquet":2701,"Ġattack":2702,"Ġworking":2703,"Ġcurb":2704,"Ġcurve":2705,"Ġalmost":2706,"Ġsquare":2707,"Ġtackled":2708,"Ġleads":2709,"Ġindian":2710,"Ġbathroom":2711,"Ġwaterskiing":2712,"Ġcolle":2713,"snowboard":2714,"Ġskirts":2715,"Ġdinner":2716,"Ġbones":2717,"den":2718,"kin":2719,"ns":2720,"os":2721,"ues":2722,"udy":2723,"yle":2724,"Ġaut":2725,"Ġahead":2726,"Ġpe":2727,"Ġpair":2728,"Ġpine":2729,"Ġpalm":2730,"Ġmess":2731,"Ġmimi":2732,"Ġfirst":2733,"Ġstrap":2734,"Ġjud":2735,"Ġsheet":2736,"Ġsmokes":2737,"Ġsport":2738,"Ġrece":2739,"Ġshovel":2740,"Ġfather":2741,"Ġclosed":2742,"Ġcloudy":2743,"Ġtrickle":2744,"Ġfoam":2745,"Ġsculp":2746,"Ġdefe":2747,"Ġthemsel":2748,"Ġflam":2749,"uba":2750,"estri":2751,"Ġalley":2752,"Ġenjoy":2753,"Ġcrouching":2754,"Ġcontro":2755,"Ġcontain":2756,"Ġmerry":2757,"Ġworkers":2758,"Ġofficer":2759,"Ġcrawl":2760,"Ġeastern":2761,"Ġairplane":2762,"Ġeagle":2763,"Ġsculpture":2764,"Ġthemselves":2765,"az":2766,"act":2767,"du":2768,"eled":2769,"ful":2770,"igh":2771,"ike":2772,"ma":2773,"tube":2774,"val":2775,"Ġbla":2776,"ang":2777,"Ġped":2778,"Ġpil":2779,"Ġcast":2780,"lets":2781,"lebr":2782,"arp":2783,"ary":2784,"Ġmag":2785,"Ġtut":2786,"late":2787,"Ġfest":2788,"Ġfeed":2789,"ited":2790,"Ġbor":2791,"Ġtoo":2792,"asia":2793,"Ġthin":2794,"Ġsharp":2795,"Ġpot":2796,"Ġsumm":2797,"Ġmoves":2798,"Ġwoodland":2799,"Ġconcer":2800,"Ġpoint":2801,"Ġexam":2802,"Ġlift":2803,"Ġrestless":2804,"Ġdesk":2805,"Ġvehicles":2806,"Ġrainbow":2807,"Ġgathering":2808,"Ġapple":2809,"Ġjockey":2810,"Ġcolors":2811,"close":2812,"Ġathlet":2813,"Ġfarm":2814,"Ġtype":2815,"Ġtowel":2816,"Ġribbon":2817,"Ġmulticolored":2818,"Ġsquatting":2819,"Ġcelebr":2820,"Ġthumbs":2821,"Ġhopeless":2822,"Ġkeep":2823,"Ġimage":2824,"Ġthough":2825,"com":2826,"cting":2827,"cent":2828,"day":2829,"get":2830,"older":2831,"vi":2832,"Ġinner":2833,"Ġdim":2834,"rope":2835,"Ġcyclists":2836,"Ġcuba":2837,"Ġtig":2838,"Ġtag":2839,"Ġtables":2840,"Ġfeather":2841,"cked":2842,"atio":2843,"unched":2844,"Ġwild":2845,"Ġratio":2846,"Ġstom":2847,"Ġthis":2848,"Ġrollers":2849,"ains":2850,"apers":2851,"Ġsplin":2852,"Ġchalk":2853,"Ġmove":2854,"Ġbeheaded":2855,"Ġcave":2856,"Ġdrama":2857,"Ġhelp":2858,"Ġkisses":2859,"Ġwheeled":2860,"Ġteamm":2861,"Ġmarking":2862,"Ġcrossway":2863,"Ġcase":2864,"Ġprete":2865,"Ġstarting":2866,"Ġscarves":2867,"Ġvests":2868,"Ġturned":2869,"Ġknee":2870,"Ġpasses":2871,"Ġspraying":2872,"Ġkayaker":2873,"Ġleading":2874,"Ġship":2875,"Ġfancy":2876,"Ġapron":2877,"Ġdrums":2878,"Ġchecked":2879,"grey":2880,"Ġchick":2881,"Ġpitcher":2882,"Ġsword":2883,"blood":2884,"Ġwindsurf":2885,"Ġcheek":2886,"Ġfigure":2887,"Ġsoda":2888,"Ġchurch":2889,"Ġscandals":2890,"Ġpillow":2891,"Ġtiger":2892,"Ġstomach":2893,"Ġrollersk":2894,"Ġsplints":2895,"ath":2896,"pt":2897,"per":2898,"time":2899,"Ġaim":2900,"Ġbead":2901,"Ġper":2902,"Ġpour":2903,"lah":2904,"Ġhear":2905,"long":2906,"Ġstool":2907,"Ġsnowmo":2908,"Ġshoot":2909,"ics":2910,"Ġskull":2911,"Ġswan":2912,"Ġtrash":2913,"Ġbul":2914,"Ġitself":2915,"Ġsofa":2916,"Ġmost":2917,"Ġliving":2918,"Ġcatcher":2919,"Ġbicyclists":2920,"Ġcarry":2921,"Ġseats":2922,"Ġsealing":2923,"Ġvis":2924,"Ġscr":2925,"Ġconvers":2926,"Ġaged":2927,"Ġshower":2928,"Ġeng":2929,"Ġenclo":2930,"Ġbanner":2931,"Ġoppon":2932,"place":2933,"Ġretrieving":2934,"Ġsleeps":2935,"Ġtouch":2936,"Ġtouches":2937,"Ġpeak":2938,"Ġherself":2939,"Ġfriends":2940,"Ġembrace":2941,"Ġsilhouette":2942,"Ġroof":2943,"Ġelectric":2944,"Ġmembers":2945,"Ġbounce":2946,"Ġlistening":2947,"Ġprotest":2948,"Ġgymnast":2949,"Ġpirate":2950,"Ġcenter":2951,"Ġstudents":2952,"berman":2953,"cts":2954,"die":2955,"ized":2956,"min":2957,"ring":2958,"tr":2959,"Ġic":2960,"Ġaer":2961,"Ġass":2962,"thday":2963,"Ġsal":2964,"Ġwe":2965,"Ġbir":2966,"anese":2967,"Ġint":2968,"Ġtell":2969,"Ġges":2970,"Ġgood":2971,"Ġgrow":2972,"Ġhung":2973,"ature":2974,"unette":2975,"Ġstares":2976,"Ġlots":2977,"riage":2978,"Ġshake":2979,"Ġridden":2980,"Ġcarriage":2981,"apanese":2982,"Ġmotion":2983,"Ġwalls":2984,"pete":2985,"Ġdraw":2986,"Ġwhat":2987,"Ġbenches":2988,"resting":2989,"Ġperformer":2990,"Ġcomple":2991,"Ġcompete":2992,"bby":2993,"Ġagility":2994,"Ġchased":2995,"Ġbagp":2996,"Ġboxer":2997,"Ġfishes":2998,"Ġleashes":2999,"ivid":3000,"Ġbooth":3001,"Ġbowing":3002,"Ġbreaking":3003,"smiling":3004,"Ġpitbull":3005,"Ġeleph":3006,"inese":3007,"Ġbrodie":3008,"Ġindivid":3009,"Ġlicks":3010,"Ġexpress":3011,"Ġprint":3012,"Ġgarage":3013,"Ġprotective":3014,"Ġtickling":3015,"whe":3016,"Ġsnowsuit":3017,"Ġinnertube":3018,"Ġbeads":3019,"Ġbirthday":3020,"Ġgesture":3021,"cut":3022,"first":3023,"gull":3024,"iage":3025,"Ġident":3026,"iny":3027,"Ġsings":3028,"Ġwas":3029,"rent":3030,"erc":3031,"road":3032,"Ġcran":3033,"lete":3034,"Ġmone":3035,"Ġta":3036,"Ġdoberman":3037,"Ġonline":3038,"Ġfle":3039,"ital":3040,"Ġstuck":3041,"oma":3042,"Ġbolder":3043,"Ġlines":3044,"Ġjew":3045,"Ġloc":3046,"Ġloun":3047,"Ġrows":3048,"Ġsha":3049,"abric":3050,"Ġrecor":3051,"Ġchar":3052,"Ġchinese":3053,"Ġneigh":3054,"entle":3055,"Ġshoe":3056,"Ġsideways":3057,"ument":3058,"Ġcafe":3059,"Ġarc":3060,"Ġvan":3061,"Ġflock":3062,"Ġsuited":3063,"Ġskinny":3064,"Ġmarching":3065,"Ġcasting":3066,"Ġpres":3067,"Ġrailroad":3068,"Ġoverlook":3069,"borhood":3070,"Ġfoliage":3071,"Ġsilly":3072,"Ġclean":3073,"Ġfollowed":3074,"Ġraising":3075,"Ġsingle":3076,"Ġpicking":3077,"Ġcrawling":3078,"Ġtraveling":3079,"Ġnatural":3080,"Ġparasail":3081,"Ġtossing":3082,"Ġspiderman":3083,"Ġdevice":3084,"Ġdaught":3085,"Ġinteresting":3086,"Ġgeese":3087,"snowboarder":3088,"Ġmagaz":3089,"Ġfeeding":3090,"Ġmarkings":3091,"Ġpouring":3092,"lahoma":3093,"Ġicy":3094,"Ġmoney":3095,"Ġneighborhood":3096,"be":3097,"bas":3098,"cif":3099,"ded":3100,"ially":3101,"ky":3102,"rid":3103,"suff":3104,"iness":3105,"Ġsou":3106,"Ġsim":3107,"res":3108,"Ġcal":3109,"Ġmead":3110,"Ġmist":3111,"Ġmeet":3112,"Ġtub":3113,"Ġtried":3114,"Ġgall":3115,"Ġgentle":3116,"Ġfabric":3117,"lock":3118,"Ġstrange":3119,"Ġtoi":3120,"Ġjapanese":3121,"vering":3122,"Ġshade":3123,"Ġcovers":3124,"Ġbends":3125,"Ġrag":3126,"ental":3127,"Ġheadfirst":3128,"Ġpale":3129,"Ġbeneath":3130,"Ġscales":3131,"raft":3132,"Ġbarren":3133,"Ġtreat":3134,"Ġbrunette":3135,"Ġcaps":3136,"Ġsets":3137,"Ġsuffers":3138,"Ġhuman":3139,"Ġswimsuits":3140,"Ġprodu":3141,"Ġlifts":3142,"Ġpartially":3143,"Ġattempt":3144,"Ġplant":3145,"Ġlands":3146,"Ġbatman":3147,"vention":3148,"Ġbounds":3149,"Ġglove":3150,"Ġfruit":3151,"Ġspeaks":3152,"Ġworker":3153,"Ġphotographs":3154,"guy":3155,"Ġathlete":3156,"Ġglided":3157,"Ġslipping":3158,"ocular":3159,"Ġteachers":3160,"Ġemerges":3161,"Ġspeakers":3162,"Ġposition":3163,"Ġbinocular":3164,"Ġexcited":3165,"Ġautumn":3166,"Ġcontrol":3167,"Ġborder":3168,"Ġconcert":3169,"view":3170,"Ġteammate":3171,"Ġmostly":3172,"Ġexpression":3173,"basket":3174,"Ġmeadow":3175,"Ġgallery":3176,"awn":3177,"bit":3178,"baby":3179,"fight":3180,"gers":3181,"ken":3182,"ming":3183,"wa":3184,"xed":3185,"ina":3186,"Ġweather":3187,"Ġbad":3188,"Ġok":3189,"Ġoun":3190,"ange":3191,"Ġdep":3192,"Ġdish":3193,"Ġmales":3194,"Ġdot":3195,"Ġdoll":3196,"lady":3197,"ised":3198,"Ġhut":3199,"Ġstyle":3200,"etted":3201,"Ġlink":3202,"Ġnarrow":3203,"Ġlogs":3204,"stick":3205,"stach":3206,"ically":3207,"seven":3208,"Ġlaw":3209,"Ġburied":3210,"Ġbill":3211,"Ġposs":3212,"Ġspace":3213,"Ġeff":3214,"Ġres":3215,"Ġcho":3216,"ific":3217,"Ġheaded":3218,"Ġpaw":3219,"Ġslight":3220,"Ġtops":3221,"Ġseco":3222,"Ġseven":3223,"Ġflora":3224,"Ġstripes":3225,"bble":3226,"Ġcape":3227,"Ġmidst":3228,"Ġstops":3229,"house":3230,"Ġsheer":3231,"Ġhouses":3232,"zzling":3233,"Ġfemales":3234,"Ġpolk":3235,"ivers":3236,"Ġappear":3237,"Ġartist":3238,"Ġmonument":3239,"works":3240,"Ġbranches":3241,"Ġbrother":3242,"Ġjoy":3243,"Ġofficers":3244,"Ġcirc":3245,"Ġcheerleader":3246,"Ġcheerleaders":3247,"Ġgrabs":3248,"Ġsilhouetted":3249,"Ġadvertisement":3250,"Ġrobe":3251,"Ġparticipate":3252,"Ġponytail":3253,"Ġpower":3254,"Ġreflection":3255,"Ġamidst":3256,"Ġdaughter":3257,"basketball":3258,"Ġounces":3259,"Ġsecond":3260,"aro":3261,"ailing":3262,"dress":3263,"dirt":3264,"fant":3265,"ither":3266,"kid":3267,"pr":3268,"ti":3269,"tubs":3270,"zing":3271,"Ġz":3272,"Ġes":3273,"Ġact":3274,"inish":3275,"Ġwand":3276,"Ġbay":3277,"Ġori":3278,"Ġpapers":3279,"Ġdand":3280,"Ġdem":3281,"Ġdump":3282,"Ġcro":3283,"arter":3284,"ndo":3285,"ister":3286,"Ġfas":3287,"cking":3288,"Ġstra":3289,"Ġstill":3290,"ened":3291,"Ġlugg":3292,"Ġarena":3293,"Ġjumper":3294,"Ġpeoples":3295,"Ġshel":3296,"Ġshedding":3297,"Ġtrans":3298,"Ġcarts":3299,"Ġbikin":3300,"Ġspine":3301,"Ġevery":3302,"Ġrear":3303,"Ġclub":3304,"rows":3305,"Ġpacif":3306,"aged":3307,"Ġcamps":3308,"Ġstrike":3309,"Ġflat":3310,"Ġcrossed":3311,"Ġbusiness":3312,"Ġboarding":3313,"Ġskyline":3314,"Ġstairway":3315,"Ġexte":3316,"Ġexerc":3317,"Ġhardest":3318,"Ġstars":3319,"Ġreturn":3320,"Ġcartwhe":3321,"Ġharnessed":3322,"itional":3323,"colate":3324,"Ġcrying":3325,"Ġrollerblader":3326,"Ġmusical":3327,"Ġmusicians":3328,"Ġshivering":3329,"Ġbroken":3330,"Ġbathtubs":3331,"Ġcandy":3332,"Ġinstrument":3333,"Ġcountryside":3334,"Ġseagull":3335,"Ġparachut":3336,"Ġmex":3337,"Ġtied":3338,"Ġwakeboarding":3339,"Ġswords":3340,"Ġadvertising":3341,"Ġrobes":3342,"Ġrelaxing":3343,"Ġapproaching":3344,"Ġleafy":3345,"Ġdriveway":3346,"Ġmurky":3347,"Ġwhistle":3348,"Ġvarious":3349,"Ġfestival":3350,"Ġsummer":3351,"Ġdimly":3352,"Ġopponent":3353,"Ġelephant":3354,"Ġcrane":3355,"Ġjewel":3356,"Ġshaved":3357,"Ġarcade":3358,"Ġbinoculars":3359,"stache":3360,"Ġslightly":3361,"Ġfashion":3362,"Ġstraight":3363,"Ġluggage":3364,"Ġbikinis":3365,"Ġpacifier":3366,"ault":3367,"bic":3368,"bag":3369,"can":3370,"ile":3371,"ied":3372,"lit":3373,"ining":3374,"inging":3375,"Ġsat":3376,"Ġwee":3377,"Ġinfant":3378,"Ġcrown":3379,"ision":3380,"Ġfre":3381,"Ġfat":3382,"iring":3383,"lor":3384,"Ġmane":3385,"omp":3386,"ids":3387,"Ġtool":3388,"Ġtollers":3389,"mps":3390,"Ġrunners":3391,"acks":3392,"Ġwaterme":3393,"ely":3394,"stro":3395,"ilar":3396,"aditional":3397,"Ġbever":3398,"Ġuphill":3399,"Ġtraditional":3400,"rench":3401,"Ġext":3402,"Ġeither":3403,"Ġsoft":3404,"Ġcau":3405,"Ġcage":3406,"ages":3407,"Ġsec":3408,"Ġseeds":3409,"racing":3410,"Ġadm":3411,"Ġdeer":3412,"Ġoper":3413,"Ġkicked":3414,"Ġopens":3415,"Ġcann":3416,"umbling":3417,"Ġgazed":3418,"Ġfireworks":3419,"Ġattent":3420,"Ġfully":3421,"coat":3422,"Ġrowboat":3423,"Ġelev":3424,"Ġkayaks":3425,"work":3426,"sky":3427,"Ġbutton":3428,"Ġdigs":3429,"Ġtugging":3430,"Ġmeal":3431,"Ġstretch":3432,"Ġstretching":3433,"Ġstretches":3434,"Ġdeadlock":3435,"Ġdropping":3436,"Ġclad":3437,"hockey":3438,"Ġdusty":3439,"Ġintervention":3440,"Ġincl":3441,"Ġpigtail":3442,"Ġmurat":3443,"Ġnavy":3444,"Ġbelly":3445,"Ġsparkles":3446,"Ġathletic":3447,"Ġvisible":3448,"Ġhunger":3449,"Ġlounge":3450,"rested":3451,"Ġgentleman":3452,"Ġchocolate":3453,"Ġwatermelo":3454,"ared":3455,"bars":3456,"crowd":3457,"capped":3458,"eer":3459,"gress":3460,"oise":3461,"pical":3462,"uding":3463,"uals":3464,"ubby":3465,"erry":3466,"ronic":3467,"Ġcell":3468,"Ġmin":3469,"Ġmall":3470,"Ġtar":3471,"Ġtuck":3472,"Ġgal":3473,"ndor":3474,"isting":3475,"Ġwig":3476,"Ġrings":3477,"oring":3478,"Ġlane":3479,"mply":3480,"elion":3481,"Ġloss":3482,"Ġsnowcapped":3483,"Ġblur":3484,"amb":3485,"Ġridge":3486,"Ġleop":3487,"Ġbee":3488,"seum":3489,"Ġlaunched":3490,"Ġrocket":3491,"Ġasce":3492,"Ġwaist":3493,"Ġsoaked":3494,"Ġlikes":3495,"Ġgown":3496,"pper":3497,"shed":3498,"Ġpuff":3499,"Ġslip":3500,"Ġmuseum":3501,"Ġcamping":3502,"Ġcomm":3503,"Ġbarn":3504,"Ġdancer":3505,"Ġbalance":3506,"Ġhorseback":3507,"Ġopening":3508,"Ġhusky":3509,"Ġlighting":3510,"Ġnighttime":3511,"Ġpointed":3512,"Ġfiretr":3513,"Ġwindows":3514,"Ġpushed":3515,"Ġnumbered":3516,"Ġworks":3517,"Ġdoors":3518,"Ġsquire":3519,"Ġquarter":3520,"Ġtattooed":3521,"Ġapart":3522,"Ġofficial":3523,"Ġcards":3524,"Ġposter":3525,"Ġpatches":3526,"Ġgliding":3527,"Ġmultiple":3528,"Ġelectronic":3529,"Ġapproaches":3530,"Ġtrotting":3531,"Ġdescending":3532,"Ġhandlebars":3533,"Ġflames":3534,"Ġcontainer":3535,"Ġpedestri":3536,"greyhou":3537,"Ġrollerskating":3538,"Ġsnowmobile":3539,"Ġenclosed":3540,"Ġaerial":3541,"Ġgrowling":3542,"Ġdrawing":3543,"Ġcomplete":3544,"Ġindividuals":3545,"Ġgestures":3546,"Ġidentical":3547,"suffer":3548,"Ġsimilar":3549,"Ġtoilet":3550,"Ġbillboard":3551,"Ġesc":3552,"Ġoriental":3553,"Ġdandelion":3554,"Ġmaneu":3555,"Ġcannon":3556,"Ġlosses":3557,"Ġleopard":3558,"Ġfiretruck":3559,"cted":3560,"cast":3561,"een":3562,"gling":3563,"ipe":3564,"ihood":3565,"ls":3566,"lph":3567,"lines":3568,"my":3569,"pter":3570,"und":3571,"vig":3572,"wers":3573,"Ġvert":3574,"Ġson":3575,"Ġske":3576,"Ġselling":3577,"Ġsque":3578,"Ġweed":3579,"Ġbab":3580,"ants":3581,"Ġpin":3582,"Ġdu":3583,"Ġcome":3584,"Ġcru":3585,"Ġcus":3586,"Ġcalm":3587,"Ġmel":3588,"Ġdon":3589,"Ġdolph":3590,"labor":3591,"Ġfellow":3592,"Ġfurn":3593,"ato":3594,"Ġrally":3595,"esma":3596,"ldo":3597,"Ġstare":3598,"Ġtour":3599,"ork":3600,"ets":3601,"onstr":3602,"Ġyawn":3603,"Ġnice":3604,"Ġlove":3605,"Ġrod":3606,"Ġfrolic":3607,"Ġshr":3608,"box":3609,"Ġoverh":3610,"ador":3611,"Ġlabr":3612,"Ġspons":3613,"Ġrep":3614,"Ġoffice":3615,"Ġwages":3616,"Ġfacial":3617,"Ġgoat":3618,"Ġheaddress":3619,"wards":3620,"Ġhelico":3621,"Ġflute":3622,"Ġuniformed":3623,"Ġfloppy":3624,"Ġpathway":3625,"Ġrights":3626,"Ġbarks":3627,"Ġdrizzling":3628,"ective":3629,"Ġcollars":3630,"Ġfisherman":3631,"ations":3632,"Ġbridesma":3633,"Ġhardihood":3634,"Ġcows":3635,"Ġvendor":3636,"Ġdistant":3637,"Ġrailings":3638,"Ġbooks":3639,"Ġpassen":3640,"Ġsimply":3641,"Ġgraffitied":3642,"Ġsporting":3643,"Ġpacked":3644,"Ġlower":3645,"Ġbound":3646,"Ġcrack":3647,"Ġmarker":3648,"Ġstrugg":3649,"vening":3650,"Ġfram":3651,"Ġbutter":3652,"Ġunderwear":3653,"Ġtropical":3654,"Ġchains":3655,"Ġshoots":3656,"Ġcolumn":3657,"Ġheav":3658,"Ġclapping":3659,"Ġribbons":3660,"Ġrelaxes":3661,"Ġitems":3662,"Ġmember":3663,"Ġnavig":3664,"Ġburning":3665,"Ġcooking":3666,"Ġcollege":3667,"Ġtrashcan":3668,"Ġbulldo":3669,"Ġgymnastics":3670,"Ġoklahoma":3671,"Ġlawton":3672,"Ġeffective":3673,"Ġdemonstr":3674,"Ġtransp":3675,"Ġweeds":3676,"Ġbabies":3677,"Ġdolphin":3678,"Ġhelicopter":3679,"bird":3680,"cers":3681,"fts":3682,"fold":3683,"go":3684,"ient":3685,"jured":3686,"mountain":3687,"nam":3688,"turn":3689,"ula":3690,"urope":3691,"vil":3692,"Ġwade":3693,"Ġinjured":3694,"Ġpy":3695,"Ġdive":3696,"Ġtiny":3697,"Ġhallow":3698,"unching":3699,"Ġstall":3700,"Ġstudi":3701,"ense":3702,"Ġyork":3703,"elled":3704,"Ġgras":3705,"Ġanna":3706,"Ġsnowban":3707,"Ġblind":3708,"Ġshare":3709,"urity":3710,"ston":3711,"stones":3712,"ams":3713,"Ġoverhead":3714,"Ġovercast":3715,"Ġbelong":3716,"Ġbackstro":3717,"Ġcarpe":3718,"Ġlashed":3719,"Ġparalle":3720,"Ġstretched":3721,"Ġspike":3722,"Ġelabor":3723,"Ġeurope":3724,"Ġreg":3725,"rant":3726,"Ġmountainous":3727,"Ġmoss":3728,"Ġhanded":3729,"Ġsunlight":3730,"Ġsandbag":3731,"Ġpau":3732,"Ġparent":3733,"Ġtrickles":3734,"Ġarch":3735,"Ġunivers":3736,"Ġfold":3737,"Ġfolding":3738,"Ġarmy":3739,"Ġpurs":3740,"Ġscore":3741,"quoise":3742,"Ġtheme":3743,"Ġbigger":3744,"Ġmarsh":3745,"Ġboards":3746,"Ġcasts":3747,"Ġfireplace":3748,"Ġprogress":3749,"Ġtrainer":3750,"Ġbearing":3751,"Ġbottles":3752,"Ġstart":3753,"zzled":3754,"Ġsubmer":3755,"Ġbowed":3756,"Ġbread":3757,"Ġsnake":3758,"Ġrush":3759,"Ġsprays":3760,"Ġpitching":3761,"Ġblocking":3762,"Ġsteer":3763,"while":3764,"Ġmotorcyclists":3765,"skies":3766,"Ġsaying":3767,"Ġpicked":3768,"spect":3769,"Ġposts":3770,"Ġwakeboarder":3771,"Ġwaterskier":3772,"Ġexplo":3773,"Ġpattered":3774,"Ġyouth":3775,"Ġnative":3776,"Ġparasailing":3777,"Ġmulticolor":3778,"Ġroot":3779,"where":3780,"Ġincline":3781,"Ġbounty":3782,"Ġobserves":3783,"Ġdescends":3784,"Ġchicken":3785,"Ġscratch":3786,"Ġbagpip":3787,"Ġcharact":3788,"bblestones":3789,"Ġmexican":3790,"Ġweeks":3791,"Ġbeverage":3792,"Ġincluding":3793,"Ġgallo":3794,"Ġsquee":3795,"Ġcushion":3796,"Ġbridesmaids":3797,"Ġheavily":3798,"Ġbulldog":3799,"Ġhalloween":3800,"Ġstudio":3801,"Ġsnowbanks":3802,"Ġblindfold":3803,"Ġcarpeted":3804,"Ġparallel":3805,"Ġelaborate":3806,"Ġsubmerged":3807,"ac":3808,"bul":3809,"craft":3810,"fl":3811,"for":3812,"flow":3813,"gan":3814,"kins":3815,"lig":3816,"mu":3817,"numb":3818,"ored":3819,"tal":3820,"vision":3821,"water":3822,"yon":3823,"za":3824,"Ġav":3825,"Ġsort":3826,"Ġbent":3827,"Ġbears":3828,"annel":3829,"Ġpas":3830,"rop":3831,"Ġcra":3832,"Ġcats":3833,"Ġcere":3834,"hibit":3835,"Ġmind":3836,"Ġmiss":3837,"Ġmix":3838,"Ġmunching":3839,"Ġtomp":3840,"Ġglow":3841,"Ġgive":3842,"Ġfea":3843,"Ġfinish":3844,"Ġfiring":3845,"Ġhour":3846,"iture":3847,"Ġwithin":3848,"Ġstorm":3849,"Ġstones":3850,"Ġbone":3851,"teen":3852,"Ġlan":3853,"pless":3854,"itter":3855,"Ġthings":3856,"Ġwatercraft":3857,"Ġnur":3858,"Ġnap":3859,"Ġload":3860,"Ġroll":3861,"Ġrolled":3862,"rial":3863,"riers":3864,"rious":3865,"Ġshed":3866,"Ġhosp":3867,"sty":3868,"Ġoutc":3869,"Ġcob":3870,"Ġcobblestones":3871,"Ġund":3872,"Ġfilling":3873,"Ġgreat":3874,"Ġlear":3875,"ilt":3876,"iler":3877,"illa":3878,"Ġtrap":3879,"Ġcarried":3880,"Ġbump":3881,"Ġpop":3882,"Ġpopping":3883,"Ġposed":3884,"Ġspir":3885,"Ġends":3886,"Ġmouse":3887,"Ġjumpsuit":3888,"ife":3889,"ift":3890,"Ġshops":3891,"Ġlie":3892,"Ġlibr":3893,"Ġsidelines":3894,"Ġuncut":3895,"Ġflannel":3896,"Ġmug":3897,"Ġfences":3898,"Ġtraitor":3899,"Ġsnowboards":3900,"Ġflood":3901,"Ġpian":3902,"Ġbarriers":3903,"Ġdangling":3904,"Ġtread":3905,"lashes":3906,"phy":3907,"Ġdarkened":3908,"Ġflapping":3909,"Ġambul":3910,"Ġnoses":3911,"Ġdried":3912,"Ġdriven":3913,"Ġheels":3914,"Ġstove":3915,"Ġcanal":3916,"Ġcanyon":3917,"Ġbackpacker":3918,"Ġboxes":3919,"tters":3920,"Ġexhibit":3921,"Ġlifting":3922,"Ġlifted":3923,"vely":3924,"Ġplank":3925,"Ġplush":3926,"Ġnumbers":3927,"Ġbatt":3928,"Ġalike":3929,"used":3930,"Ġartific":3931,"attle":3932,"play":3933,"Ġretrieve":3934,"cording":3935,"Ġsinger":3936,"motor":3937,"Ġforefront":3938,"Ġpads":3939,"Ġtuxed":3940,"leton":3941,"Ġowners":3942,"Ġcheering":3943,"Ġbottoms":3944,"Ġtrophy":3945,"Ġchecking":3946,"Ġturkey":3947,"Ġturquoise":3948,"Ġtile":3949,"soccer":3950,"Ġseeking":3951,"Ġmilk":3952,"Ġaccording":3953,"Ġdrops":3954,"Ġclowns":3955,"Ġpractices":3956,"Ġtyrant":3957,"Ġwarmly":3958,"blonde":3959,"idential":3960,"Ġpenza":3961,"Ġtightrope":3962,"Ġjudges":3963,"Ġrecei":3964,"Ġpotato":3965,"Ġexamine":3966,"Ġkeeps":3967,"Ġchickens":3968,"athon":3969,"Ġpresent":3970,"Ġzip":3971,"Ġshelter":3972,"Ġeverywhere":3973,"Ġreturns":3974,"Ġoperating":3975,"Ġattention":3976,"Ġtarget":3977,"Ġtucking":3978,"Ġblurred":3979,"Ġvertical":3980,"Ġskeleton":3981,"Ġfurniture":3982,"Ġtransport":3983,"turned":3984,"Ġbelongings":3985,"Ġbackstroke":3986,"Ġeuropean":3987,"Ġpauses":3988,"Ġuniversity":3989,"Ġtompkins":3990,"Ġfeathered":3991,"Ġhours":3992,"Ġhospital":3993,"Ġlibrary":3994,"Ġambulance":3995,"Ġartificial":3996,"Ġtuxedos":3997,"ala":3998,"bat":3999,"baker":4000,"car":4001,"cou":4002,"dish":4003,"drop":4004,"fi":4005,"iled":4006,"just":4007,"lm":4008,"ler":4009,"mat":4010,"night":4011,"py":4012,"ram":4013,"ske":4014,"ten":4015,"ters":4016,"vie":4017,"wk":4018,"zes":4019,"Ġrou":4020,"Ġsom":4021,"Ġsister":4022,"Ġwashing":4023,"Ġbroom":4024,"Ġbitten":4025,"reme":4026,"Ġpou":4027,"Ġpress":4028,"Ġdy":4029,"Ġdach":4030,"Ġtheater":4031,"Ġcry":4032,"Ġclashes":4033,"Ġmi":4034,"Ġmatt":4035,"Ġtiss":4036,"Ġfe":4037,"ald":4038,"alt":4039,"Ġhall":4040,"ative":4041,"unk":4042,"unning":4043,"irrel":4044,"itch":4045,"Ġboston":4046,"orman":4047,"orange":4048,"Ġplaced":4049,"Ġjig":4050,"Ġyelling":4051,"Ġjuice":4052,"Ġnina":4053,"Ġreddish":4054,"oop":4055,"Ġlocked":4056,"Ġshalt":4057,"aining":4058,"ained":4059,"Ġfilm":4060,"Ġleag":4061,"Ġupon":4062,"Ġbackdrop":4063,"Ġtrump":4064,"aying":4065,"Ġkill":4066,"Ġeight":4067,"Ġevening":4068,"Ġasking":4069,"Ġremo":4070,"Ġrelig":4071,"Ġchin":4072,"Ġchat":4073,"Ġchink":4074,"Ġchop":4075,"Ġskateboarders":4076,"Ġsold":4077,"Ġsocks":4078,"Ġcame":4079,"ults":4080,"Ġmobile":4081,"Ġmovie":4082,"lesco":4083,"Ġcare":4084,"Ġdrain":4085,"Ġhilly":4086,"Ġarrested":4087,"torted":4088,"Ġseash":4089,"Ġmustache":4090,"Ġfencing":4091,"Ġvilla":4092,"Ġperforman":4093,"Ġobsc":4094,"rait":4095,"Ġtelesco":4096,"Ġhighway":4097,"Ġdancers":4098,"Ġadjust":4099,"Ġballet":4100,"Ġmarble":4101,"Ġguitarist":4102,"Ġspring":4103,"Ġhound":4104,"Ġharding":4105,"Ġeyed":4106,"Ġobstacles":4107,"Ġscars":4108,"scular":4109,"Ġtelevision":4110,"Ġorder":4111,"Ġsuburban":4112,"Ġbreed":4113,"Ġraincoat":4114,"Ġraise":4115,"Ġblocked":4116,"Ġsquirrel":4117,"Ġcups":4118,"Ġsax":4119,"Ġsupport":4120,"Ġforehead":4121,"Ġscenery":4122,"Ġpadded":4123,"Ġfetched":4124,"Ġpetty":4125,"ustrial":4126,"Ġwritten":4127,"Ġbeak":4128,"Ġships":4129,"Ġindustrial":4130,"Ġplates":4131,"Ġdrummer":4132,"Ġamongst":4133,"Ġvideot":4134,"Ġpiercing":4135,"Ġchecks":4136,"Ġcoloring":4137,"Ġpractice":4138,"Ġtiled":4139,"Ġsleeve":4140,"Ġsleepless":4141,"Ġbowls":4142,"Ġchip":4143,"Ġdragging":4144,"Ġknife":4145,"Ġtravels":4146,"Ġgarb":4147,"Ġguarding":4148,"Ġdirections":4149,"Ġsailboat":4150,"Ġtossed":4151,"Ġparticipating":4152,"Ġskirted":4153,"Ġticket":4154,"Ġemerging":4155,"Ġbelt":4156,"Ġspider":4157,"Ġportrait":4158,"Ġhorizontal":4159,"Ġpeers":4160,"Ġstrapped":4161,"Ġjudging":4162,"Ġcontaining":4163,"Ġcastle":4164,"Ġtooth":4165,"Ġcelebrating":4166,"Ġpretending":4167,"Ġwindsurfer":4168,"Ġaiming":4169,"minton":4170,"Ġtax":4171,"Ġmagazine":4172,"Ġmagazines":4173,"fighter":4174,"Ġbadminton":4175,"sticks":4176,"prised":4177,"Ġextended":4178,"Ġfresh":4179,"Ġsecurity":4180,"Ġadmire":4181,"Ġcommun":4182,"Ġescala":4183,"Ġyawning":4184,"Ġlabrador":4185,"Ġsponsored":4186,"Ġfolded":4187,"Ġbagpipes":4188,"Ġcharacters":4189,"muzzled":4190,"number":4191,"Ġpiano":4192,"motorc":4193,"Ġtransportation":4194,"couple":4195,"skewers":4196,"Ġdachsh":4197,"Ġtissue":4198,"Ġjigger":4199,"Ġtrumpet":4200,"Ġreligious":4201,"Ġchopsticks":4202,"Ġseashore":4203,"Ġperformance":4204,"Ġtelescope":4205,"Ġescalator":4206,"big":4207,"cl":4208,"dark":4209,"elding":4210,"eight":4211,"ha":4212,"iian":4213,"ights":4214,"ively":4215,"mon":4216,"ond":4217,"pain":4218,"ray":4219,"rings":4220,"up":4221,"vation":4222,"wing":4223,"wet":4224,"Ġsne":4225,"Ġsash":4226,"Ġself":4227,"Ġsacks":4228,"Ġwise":4229,"Ġbrace":4230,"Ġovers":4231,"Ġpri":4232,"Ġpries":4233,"Ġditch":4234,"Ġcab":4235,"Ġcries":4236,"Ġmor":4237,"Ġmain":4238,"Ġmaro":4239,"Ġted":4240,"Ġtim":4241,"Ġtape":4242,"Ġtapped":4243,"Ġgen":4244,"Ġgas":4245,"Ġgains":4246,"Ġdoming":4247,"Ġfind":4248,"Ġwill":4249,"Ġrack":4250,"Ġrif":4251,"ests":4252,"oming":4253,"tel":4254,"ors":4255,"ory":4256,"orse":4257,"orts":4258,"Ġlunch":4259,"Ġlush":4260,"Ġjag":4261,"Ġjokes":4262,"Ġthre":4263,"Ġthick":4264,"Ġwatery":4265,"ards":4266,"cept":4267,"ooth":4268,"Ġgran":4269,"Ġrott":4270,"Ġrome":4271,"Ġsharing":4272,"Ġhoping":4273,"Ġhotel":4274,"body":4275,"Ġcop":4276,"Ġcopper":4277,"Ġuse":4278,"Ġgreet":4279,"Ġlet":4280,"adults":4281,"Ġbacklit":4282,"abs":4283,"Ġkno":4284,"Ġkitten":4285,"Ġparis":4286,"Ġstrewn":4287,"Ġspan":4288,"Ġspec":4289,"Ġeg":4290,"Ġrecent":4291,"Ġchalle":4292,"Ġchubby":4293,"Ġcling":4294,"Ġneed":4295,"Ġsuper":4296,"Ġsucking":4297,"Ġmod":4298,"Ġhanding":4299,"eract":4300,"umer":4301,"ppers":4302,"shine":4303,"Ġsurprised":4304,"Ġsunshine":4305,"Ġcaut":4306,"Ġhello":4307,"aging":4308,"Ġarab":4309,"Ġunus":4310,"Ġsees":4311,"Ġseattle":4312,"Ġfoc":4313,"Ġmuch":4314,"Ġmuscular":4315,"Ġvine":4316,"Ġhorns":4317,"Ġsnowboarders":4318,"Ġpurses":4319,"Ġhawa":4320,"Ġrival":4321,"Ġdec":4322,"uggle":4323,"Ġcouples":4324,"Ġmarch":4325,"Ġmarathon":4326,"Ġboxers":4327,"Ġstepping":4328,"uble":4329,"Ġskysc":4330,"Ġenc":4331,"Ġtrains":4332,"weiler":4333,"Ġclothed":4334,"Ġstarts":4335,"Ġstarring":4336,"Ġrailway":4337,"Ġstatues":4338,"Ġveget":4339,"Ġwords":4340,"Ġstores":4341,"Ġornam":4342,"Ġdisk":4343,"Ġdistorted":4344,"mmed":4345,"jockey":4346,"Ġsnack":4347,"ieval":4348,"Ġclearing":4349,"Ġrusty":4350,"Ġpaperwork":4351,"bike":4352,"Ġcurious":4353,"Ġmonitor":4354,"Ġmonster":4355,"appy":4356,"Ġcrouch":4357,"Ġearrings":4358,"Ġsailing":4359,"Ġcreating":4360,"Ġmusician":4361,"Ġkayakers":4362,"Ġstruggle":4363,"Ġlegged":4364,"Ġcontest":4365,"Ġpets":4366,"Ġwrist":4367,"Ġbutt":4368,"Ġmarketplace":4369,"Ġsaddle":4370,"Ġcutting":4371,"Ġfairy":4372,"Ġfairground":4373,"Ġmedals":4374,"Ġmedieval":4375,"green":4376,"Ġdragon":4377,"Ġprinting":4378,"Ġprinted":4379,"Ġembracing":4380,"Ġenter":4381,"Ġpattern":4382,"Ġserve":4383,"Ġserious":4384,"Ġtracksuit":4385,"Ġeyeb":4386,"Ġinterview":4387,"Ġmatter":4388,"Ġceiling":4389,"Ġlistens":4390,"Ġnewton":4391,"Ġreflecting":4392,"Ġposted":4393,"Ġcook":4394,"Ġstraps":4395,"Ġblaine":4396,"angled":4397,"Ġexamining":4398,"Ġapples":4399,"Ġfeathers":4400,"Ġperched":4401,"Ġheart":4402,"Ġassist":4403,"Ġinteract":4404,"Ġbagpipe":4405,"Ġlocated":4406,"Ġcleaning":4407,"rida":4408,"Ġmeeting":4409,"Ġresidential":4410,"Ġcircuit":4411,"Ġexercise":4412,"Ġcartwheel":4413,"Ġseagulls":4414,"Ġfashioned":4415,"Ġcausing":4416,"Ġwatermelon":4417,"Ġascending":4418,"Ġquarterback":4419,"Ġpedestrians":4420,"Ġtourist":4421,"Ġoverhung":4422,"Ġpassengers":4423,"Ġcracked":4424,"Ġstruggles":4425,"Ġpyram":4426,"Ġpursu":4427,"Ġgalloping":4428,"Ġavo":4429,"teenager":4430,"Ġoutcro":4431,"Ġflooded":4432,"Ġleague":4433,"Ġvillage":4434,"Ġsaxo":4435,"Ġsneering":4436,"Ġwiseman":4437,"Ġbracelets":4438,"Ġmaroon":4439,"Ġteddy":4440,"Ġdomingo":4441,"Ġjagged":4442,"Ġrecently":4443,"Ġchalleng":4444,"Ġunusual":4445,"Ġskyscrap":4446,"Ġpyramid":4447,"af":4448,"bl":4449,"bell":4450,"bones":4451,"bert":4452,"base":4453,"barrow":4454,"cc":4455,"cess":4456,"cycling":4457,"fly":4458,"family":4459,"ith":4460,"ilor":4461,"kle":4462,"lish":4463,"mar":4464,"made":4465,"mony":4466,"ops":4467,"pro":4468,"son":4469,"sure":4470,"sion":4471,"ustr":4472,"vas":4473,"vol":4474,"Ġif":4475,"ints":4476,"Ġsear":4477,"Ġsale":4478,"Ġsallow":4479,"Ġsell":4480,"Ġbra":4481,"Ġox":4482,"Ġoar":4483,"Ġocc":4484,"thed":4485,"Ġinvol":4486,"Ġdi":4487,"Ġdum":4488,"Ġcable":4489,"Ġmap":4490,"Ġmater":4491,"Ġtest":4492,"Ġtrench":4493,"Ġgla":4494,"Ġoncom":4495,"iser":4496,"ises":4497,"Ġfer":4498,"Ġfling":4499,"Ġfist":4500,"Ġfrench":4501,"lots":4502,"Ġsta":4503,"rous":4504,"andon":4505,"asium":4506,"cheer":4507,"Ġplayful":4508,"Ġjar":4509,"irling":4510,"Ġyears":4511,"Ġhides":4512,"nown":4513,"pled":4514,"plets":4515,"itty":4516,"Ġlod":4517,"ssies":4518,"Ġankle":4519,"Ġsherman":4520,"Ġshaw":4521,"urring":4522,"Ġhopping":4523,"Ġsmelling":4524,"sters":4525,"store":4526,"Ġcond":4527,"ictor":4528,"Ġul":4529,"Ġswa":4530,"Ġovernight":4531,"Ġletters":4532,"seen":4533,"Ġupward":4534,"Ġtray":4535,"Ġcarving":4536,"Ġcarrier":4537,"Ġlamp":4538,"apes":4539,"Ġhero":4540,"Ġbug":4541,"Ġbuggy":4542,"Ġkitty":4543,"Ġpoking":4544,"Ġevil":4545,"Ġreb":4546,"Ġresc":4547,"Ġreally":4548,"Ġneeds":4549,"rance":4550,"Ġsoaking":4551,"Ġsoaring":4552,"Ġmoon":4553,"vest":4554,"ortness":4555,"shortness":4556,"Ġpus":4557,"Ġpail":4558,"Ġhell":4559,"Ġunf":4560,"Ġunion":4561,"Ġunseen":4562,"Ġbloss":4563,"Ġill":4564,"Ġseating":4565,"Ġseem":4566,"Ġhaircut":4567,"Ġbaskets":4568,"Ġvault":4569,"Ġvictor":4570,"Ġtrailing":4571,"Ġtravers":4572,"Ġpurch":4573,"Ġsite":4574,"Ġflorida":4575,"raction":4576,"Ġcongre":4577,"arent":4578,"Ġbarb":4579,"Ġstriking":4580,"Ġbeset":4581,"ashed":4582,"Ġcanning":4583,"Ġbackpacking":4584,"Ġcliffs":4585,"Ġcrossbones":4586,"ttes":4587,"Ġwheelbarrow":4588,"Ġbridle":4589,"Ġbeds":4590,"Ġable":4591,"Ġabandon":4592,"Ġbanners":4593,"Ġpushkin":4594,"Ġcompan":4595,"ude":4596,"Ġviz":4597,"Ġrails":4598,"Ġcorps":4599,"Ġtongues":4600,"Ġcurrent":4601,"Ġharbor":4602,"Ġhalted":4603,"Ġlipstick":4604,"Ġspoon":4605,"Ġnecked":4606,"Ġhorsesho":4607,"Ġsnap":4608,"Ġslopes":4609,"Ġformally":4610,"Ġcurt":4611,"Ġbookstore":4612,"Ġcigarettes":4613,"Ġgathers":4614,"Ġbouquet":4615,"Ġcrash":4616,"Ġcrumbling":4617,"Ġpieces":4618,"bands":4619,"Ġhomemade":4620,"Ġshipping":4621,"Ġcowboys":4622,"Ġdigital":4623,"Ġowning":4624,"Ġpeaks":4625,"Ġspeeding":4626,"Ġrubbing":4627,"Ġshades":4628,"Ġlining":4629,"Ġpierced":4630,"Ġdirect":4631,"Ġposters":4632,"Ġbegging":4633,"Ġbeginning":4634,"Ġmotorbikes":4635,"Ġdroplets":4636,"Ġmachines":4637,"Ġwrites":4638,"Ġentert":4639,"Ġentrance":4640,"Ġpatting":4641,"ensive":4642,"Ġcomputers":4643,"Ġprotect":4644,"Ġtwirling":4645,"Ġparticipates":4646,"Ġteaching":4647,"Ġairport":4648,"Ġobserving":4649,"Ġgymnasium":4650,"Ġsparkled":4651,"Ġattacking":4652,"Ġdefend":4653,"Ġdefeated":4654,"Ġfestive":4655,"Ġathletes":4656,"comp":4657,"Ġtags":4658,"Ġpretend":4659,"Ġenclosure":4660,"Ġsalvation":4661,"Ġrecord":4662,"Ġparasails":4663,"Ġsounds":4664,"Ġragged":4665,"Ġexpressions":4666,"Ġdollar":4667,"Ġpossession":4668,"Ġresort":4669,"Ġparachuting":4670,"Ġelevator":4671,"Ġcells":4672,"Ġpuffy":4673,"greyhounds":4674,"Ġmelting":4675,"Ġframed":4676,"Ġbutterfly":4677,"Ġparents":4678,"Ġceremony":4679,"Ġsomers":4680,"Ġsoldier":4681,"Ġcommunity":4682,"Ġdachshund":4683,"Ġtimes":4684,"Ġspanish":4685,"Ġspecial":4686,"Ġeggs":4687,"Ġhawaiian":4688,"Ġoutcropping":4689,"Ġchallenging":4690,"blue":4691,"Ġmaterial":4692,"Ġoncoming":4693,"cheerlead":4694,"Ġrescue":4695,"Ġcongreg":4696,"ael":4697,"away":4698,"ba":4699,"bru":4700,"cier":4701,"iet":4702,"iod":4703,"ience":4704,"ique":4705,"lid":4706,"naw":4707,"of":4708,"ot":4709,"oping":4710,"ption":4711,"santa":4712,"yellow":4713,"yond":4714,"Ġel":4715,"Ġawa":4716,"Ġsen":4717,"Ġsab":4718,"Ġsong":4719,"Ġbark":4720,"Ġburn":4721,"Ġbrows":4722,"Ġodd":4723,"Ġinst":4724,"Ġinse":4725,"Ġinvest":4726,"eram":4727,"Ġder":4728,"Ġdunning":4729,"roller":4730,"Ġcall":4731,"Ġcri":4732,"Ġcycle":4733,"Ġcraft":4734,"hic":4735,"hift":4736,"Ġming":4737,"Ġtit":4738,"Ġtumbling":4739,"Ġgoo":4740,"Ġgrown":4741,"Ġgree":4742,"Ġgnaw":4743,"Ġfrown":4744,"Ġflash":4745,"Ġferry":4746,"Ġhum":4747,"Ġhamb":4748,"ungs":4749,"Ġwiped":4750,"Ġwilder":4751,"Ġrubs":4752,"Ġstout":4753,"Ġstoop":4754,"enian":4755,"Ġwhisp":4756,"Ġbodies":4757,"Ġtoe":4758,"Ġtourn":4759,"eter":4760,"chan":4761,"chael":4762,"Ġlime":4763,"Ġlungs":4764,"Ġplayhouse":4765,"noon":4766,"Ġwatering":4767,"Ġwaterway":4768,"right":4769,"Ġang":4770,"Ġange":4771,"Ġshines":4772,"Ġshiny":4773,"Ġshining":4774,"urgers":4775,"Ġsmooth":4776,"stal":4777,"stom":4778,"boats":4779,"ices":4780,"Ġus":4781,"Ġused":4782,"llar":4783,"Ġfix":4784,"aming":4785,"ames":4786,"ament":4787,"Ġswabs":4788,"toller":4789,"Ġlens":4790,"illed":4791,"Ġlooters":4792,"Ġbees":4793,"Ġbeyond":4794,"Ġupper":4795,"Ġlaws":4796,"aps":4797,"appled":4798,"Ġfields":4799,"Ġrocking":4800,"Ġbuy":4801,"Ġbudd":4802,"Ġbuilt":4803,"Ġgreenhouse":4804,"Ġkind":4805,"Ġkang":4806,"Ġrafts":4807,"renched":4808,"Ġparag":4809,"Ġpoor":4810,"Ġspurring":4811,"Ġem":4812,"Ġmoustache":4813,"Ġcha":4814,"Ġchange":4815,"Ġoffering":4816,"Ġmountaineer":4817,"Ġjackson":4818,"Ġcamcor":4819,"Ġcameram":4820,"Ġmosc":4821,"Ġliqu":4822,"Ġhandful":4823,"Ġsidecar":4824,"Ġfav":4825,"Ġgoats":4826,"Ġgondo":4827,"igo":4828,"Ġsunba":4829,"Ġcloses":4830,"Ġclosel":4831,"Ġsling":4832,"Ġunique":4833,"Ġsending":4834,"Ġsewing":4835,"Ġguide":4836,"Ġfog":4837,"Ġhairy":4838,"Ġarmenian":4839,"Ġmotorized":4840,"Ġscant":4841,"Ġconfet":4842,"Ġconfront":4843,"Ġtemp":4844,"Ġpips":4845,"Ġpillar":4846,"Ġsignal":4847,"ishes":4848,"Ġstripped":4849,"Ġbrains":4850,"Ġnote":4851,"Ġstopped":4852,"Ġwhose":4853,"Ġfighter":4854,"Ġcanvas":4855,"Ġmarks":4856,"oklahoma":4857,"Ġafternoon":4858,"tty":4859,"Ġgazing":4860,"Ġskyd":4861,"Ġbridal":4862,"Ġbedroom":4863,"Ġfires":4864,"Ġfirefighter":4865,"Ġpretty":4866,"Ġsurfboarder":4867,"Ġexcept":4868,"Ġtrails":4869,"Ġcheers":4870,"Ġbanks":4871,"Ġwinner":4872,"Ġworld":4873,"Ġcords":4874,"Ġdesign":4875,"Ġmakeshift":4876,"Ġameric":4877,"Ġsize":4878,"Ġbreaks":4879,"Ġequestri":4880,"Ġprepare":4881,"Ġclever":4882,"Ġcleared":4883,"Ġsweat":4884,"Ġrainy":4885,"Ġwaterfalls":4886,"Ġcanopy":4887,"Ġjesus":4888,"Ġcustom":4889,"Ġmuscle":4890,"Ġearning":4891,"Ġearly":4892,"Ġearphones":4893,"Ġcreature":4894,"Ġquand":4895,"Ġstrings":4896,"Ġpaintball":4897,"Ġfris":4898,"Ġspotlight":4899,"Ġmerch":4900,"Ġshopman":4901,"Ġstroll":4902,"Ġjoin":4903,"Ġcolorfully":4904,"Ġpulley":4905,"Ġclassic":4906,"Ġbowler":4907,"Ġnewspapers":4908,"ĠĠĠ":4909,"Ġdecorative":4910,"Ġformations":4911,"Ġscreams":4912,"Ġacce":4913,"Ġguards":4914,"Ġprofile":4915,"Ġseries":4916,"Ġnature":4917,"Ġstrawb":4918,"Ġslipped":4919,"izing":4920,"Ġsails":4921,"Ġtwisting":4922,"Ġeaster":4923,"ects":4924,"ocide":4925,"Ġpigmy":4926,"Ġtrimmed":4927,"Ġtails":4928,"Ġcheeks":4929,"Ġpowder":4930,"Ġdefending":4931,"Ġflaming":4932,"Ġsummit":4933,"Ġcelebrate":4934,"comes":4935,"Ġwindsurfing":4936,"Ġperiod":4937,"Ġconversation":4938,"Ġaero":4939,"Ġindividual":4940,"Ġflex":4941,"Ġlocation":4942,"Ġsound":4943,"Ġcalf":4944,"Ġcalled":4945,"Ġmisty":4946,"Ġpossible":4947,"Ġcircular":4948,"aroo":4949,"Ġdumps":4950,"Ġcartwheels":4951,"Ġtools":4952,"Ġwatermelons":4953,"Ġcellphones":4954,"Ġsquires":4955,"Ġapartment":4956,"greyhound":4957,"Ġmaneuver":4958,"Ġmaneuvers":4959,"Ġdukes":4960,"Ġshrine":4961,"Ġshrub":4962,"Ġnavigators":4963,"ulation":4964,"spectators":4965,"Ġexplosion":4966,"Ġblindfolded":4967,"Ġpasture":4968,"Ġlantern":4969,"Ġspirit":4970,"Ġbattle":4971,"Ġpresentation":4972,"field":4973,"matic":4974,"Ġdyed":4975,"Ġmichael":4976,"Ġcarefully":4977,"Ġmorning":4978,"Ġgenocide":4979,"Ġgranulation":4980,"Ġrottweiler":4981,"Ġletter":4982,"umerous":4983,"Ġcaution":4984,"Ġeyebrows":4985,"Ġpursued":4986,"Ġskyscraper":4987,"Ġglacier":4988,"Ġswamps":4989,"Ġrebels":4990,"Ġcurtain":4991,"cheerleaders":4992,"Ġcongregated":4993,"brush":4994,"Ġinstruct":4995,"Ġinsect":4996,"Ġinvestig":4997,"rollerbla":4998,"Ġtitus":4999,"Ġgoose":5000,"Ġgreeley":5001,"Ġgnawing":5002,"Ġhamburgers":5003,"Ġwilderness":5004,"Ġtournament":5005,"Ġkangaroo":5006,"Ġcamcorder":5007,"Ġcameraman":5008,"Ġmoscow":5009,"Ġliquid":5010,"Ġgondola":5011,"Ġclosely":5012,"Ġscantily":5013,"Ġconfetti":5014,"Ġequestrian":5015,"av":5016,"bear":5017,"bea":5018,"bakers":5019,"bster":5020,"bald":5021,"cod":5022,"cyclists":5023,"cient":5024,"ders":5025,"dist":5026,"during":5027,"ef":5028,"fem":5029,"frie":5030,"gant":5031,"hard":5032,"hake":5033,"happy":5034,"ior":5035,"ips":5036,"iature":5037,"jec":5038,"lights":5039,"med":5040,"net":5041,"naked":5042,"nhard":5043,"oven":5044,"po":5045,"park":5046,"pted":5047,"pol":5048,"rug":5049,"rise":5050,"sa":5051,"sw":5052,"shi":5053,"sat":5054,"smen":5055,"tw":5056,"tes":5057,"tch":5058,"tation":5059,"uis":5060,"vag":5061,"wed":5062,"with":5063,"yl":5064,"zag":5065,"Ġir":5066,"Ġlack":5067,"Ġque":5068,"Ġaro":5069,"Ġaid":5070,"Ġamp":5071,"Ġado":5072,"Ġaward":5073,"Ġastr":5074,"Ġactive":5075,"ingy":5076,"Ġsy":5077,"Ġsin":5078,"Ġsep":5079,"Ġsight":5080,"Ġsled":5081,"Ġwoven":5082,"Ġbree":5083,"Ġbell":5084,"Ġbeaded":5085,"Ġoly":5086,"they":5087,"anging":5088,"Ġinspe":5089,"rer":5090,"erbell":5091,"Ġpoo":5092,"Ġpean":5093,"Ġpunched":5094,"Ġpaying":5095,"Ġdad":5096,"Ġdrenched":5097,"ara":5098,"Ġmom":5099,"Ġmam":5100,"Ġmast":5101,"Ġmats":5102,"Ġtil":5103,"Ġtink":5104,"Ġties":5105,"Ġtumb":5106,"Ġgames":5107,"Ġdots":5108,"Ġdouble":5109,"ison":5110,"Ġfin":5111,"Ġfell":5112,"cker":5113,"ckled":5114,"alian":5115,"Ġhur":5116,"Ġhad":5117,"atically":5118,"Ġisra":5119,"Ġisland":5120,"unt":5121,"iting":5122,"itish":5123,"itive":5124,"Ġwiz":5125,"Ġwielding":5126,"Ġwicker":5127,"Ġrab":5128,"Ġrude":5129,"esting":5130,"Ġstay":5131,"Ġstead":5132,"Ġsteam":5133,"Ġstubby":5134,"Ġstained":5135,"Ġstory":5136,"oms":5137,"Ġboa":5138,"Ġbows":5139,"Ġtor":5140,"Ġtone":5141,"andise":5142,"orted":5143,"ases":5144,"Ġplacing":5145,"Ġplaces":5146,"Ġlim":5147,"Ġlitter":5148,"irlift":5149,"Ġhips":5150,"Ġrunaway":5151,"Ġthan":5152,"ound":5153,"ouse":5154,"outs":5155,"Ġwaterfront":5156,"Ġnip":5157,"Ġnail":5158,"Ġnumerous":5159,"Ġloll":5160,"Ġgrim":5161,"uts":5162,"Ġrods":5163,"riger":5164,"Ġbrownish":5165,"Ġant":5166,"Ġancient":5167,"Ġbluff":5168,"Ġfrog":5169,"Ġbluej":5170,"Ġhops":5171,"Ġcoal":5172,"Ġcott":5173,"Ġcoquet":5174,"immer":5175,"Ġdownto":5176,"keys":5177,"Ġovercoat":5178,"Ġlease":5179,"ilight":5180,"Ġbeat":5181,"Ġbeating":5182,"Ġbecomes":5183,"Ġupra":5184,"Ġupset":5185,"kshake":5186,"Ġlaid":5187,"Ġlate":5188,"Ġlamb":5189,"aping":5190,"Ġherd":5191,"Ġparlor":5192,"Ġnearly":5193,"Ġstreaks":5194,"Ġpocket":5195,"Ġspon":5196,"Ġsplit":5197,"Ġmouthed":5198,"Ġfort":5199,"Ġrec":5200,"Ġreal":5201,"Ġclut":5202,"Ġclinging":5203,"Ġsomebody":5204,"Ġoffers":5205,"Ġsoap":5206,"Ġsocial":5207,"ently":5208,"Ġmore":5209,"Ġmoder":5210,"Ġlion":5211,"Ġligh":5212,"Ġlipping":5213,"Ġhandic":5214,"Ġclimbed":5215,"ume":5216,"cture":5217,"Ġheading":5218,"Ġpump":5219,"Ġpumps":5220,"Ġcrowds":5221,"Ġfootpr":5222,"Ġfootballers":5223,"Ġdra":5224,"Ġdram":5225,"Ġcolon":5226,"Ġwhen":5227,"Ġwhom":5228,"Ġarched":5229,"Ġunturned":5230,"Ġunhappy":5231,"gings":5232,"Ġtens":5233,"Ġseal":5234,"Ġguiding":5235,"Ġfolly":5236,"Ġven":5237,"Ġvac":5238,"Ġroadway":5239,"Ġsco":5240,"nected":5241,"Ġunderground":5242,"Ġhawk":5243,"Ġflotation":5244,"races":5245,"ravag":5246,"Ġcombat":5247,"Ġwalker":5248,"Ġconf":5249,"Ġcons":5250,"Ġconnected":5251,"Ġtethered":5252,"Ġhigher":5253,"Ġador":5254,"Ġstrips":5255,"Ġbringing":5256,"Ġlooked":5257,"Ġlookout":5258,"Ġflowing":5259,"Ġskins":5260,"Ġcapt":5261,"Ġdrift":5262,"Ġdrilling":5263,"Ġheight":5264,"Ġimpact":5265,"Ġwinding":5266,"Ġcane":5267,"Ġcanad":5268,"Ġmarx":5269,"Ġbales":5270,"ational":5271,"Ġbricks":5272,"Ġcasual":5273,"Ġbridges":5274,"Ġwaiter":5275,"Ġobjects":5276,"Ġfloors":5277,"Ġprey":5278,"Ġener":5279,"Ġsurfboards":5280,"Ġallies":5281,"Ġpartly":5282,"Ġcowgirl":5283,"Ġrooms":5284,"Ġattract":5285,"Ġbaton":5286,"Ġworn":5287,"Ġcorndo":5288,"Ġreached":5289,"Ġorgan":5290,"Ġalert":5291,"Ġalsat":5292,"Ġkneel":5293,"Ġbreeds":5294,"Ġbreath":5295,"Ġcompetitive":5296,"iece":5297,"Ġruss":5298,"Ġcigars":5299,"Ġviewer":5300,"ousine":5301,"Ġmonkeys":5302,"Ġsteel":5303,"cotch":5304,"Ġstructures":5305,"Ġinflated":5306,"Ġelegant":5307,"Ġearth":5308,"Ġsailor":5309,"Ġquiet":5310,"Ġleggings":5311,"Ġforeman":5312,"Ġcontents":5313,"Ġcoverings":5314,"Ġrounds":5315,"Ġbroad":5316,"Ġdisplaying":5317,"Ġdisplays":5318,"Ġempire":5319,"Ġcandle":5320,"Ġclears":5321,"street":5322,"Ġstrong":5323,"Ġmean":5324,"Ġmechan":5325,"Ġpaintings":5326,"Ġtips":5327,"Ġtiara":5328,"Ġwakeboards":5329,"Ġhook":5330,"Ġwires":5331,"Ġmilkshake":5332,"Ġscreaming":5333,"Ġshadows":5334,"Ġacc":5335,"Ġacting":5336,"Ġaccomp":5337,"Ġentering":5338,"Ġgarter":5339,"Ġnecklaces":5340,"Ġrefriger":5341,"Ġcheerleading":5342,"Ġwrapping":5343,"Ġprotection":5344,"Ġtwig":5345,"Ġtwilight":5346,"ecy":5347,"Ġdining":5348,"Ġteacher":5349,"Ġbonnet":5350,"Ġleaflets":5351,"Ġsums":5352,"Ġtrim":5353,"Ġtrip":5354,"Ġnewly":5355,"Ġobserve":5356,"Ġobserved":5357,"Ġgroomsmen":5358,"Ġmassage":5359,"Ġmassive":5360,"Ġdevil":5361,"Ġsparkling":5362,"Ġsodium":5363,"Ġpirates":5364,"Ġinterested":5365,"Ġgeiser":5366,"Ġpairs":5367,"Ġsheets":5368,"Ġreceiving":5369,"Ġreception":5370,"Ġalleyway":5371,"Ġconcerned":5372,"centr":5373,"Ġpretends":5374,"Ġwindsurfs":5375,"Ġaims":5376,"Ġstools":5377,"Ġscruff":5378,"Ġconverse":5379,"Ġconversing":5380,"Ġengine":5381,"Ġopponents":5382,"Ġintently":5383,"Ġbooths":5384,"Ġfleecy":5385,"Ġpresents":5386,"been":5387,"Ġproduct":5388,"Ġproducts":5389,"Ġdepe":5390,"Ġdepic":5391,"inished":5392,"Ġcrocod":5393,"Ġextends":5394,"Ġexercises":5395,"Ġparachutes":5396,"Ġfatig":5397,"Ġextreme":5398,"Ġextravag":5399,"Ġminiature":5400,"Ġascend":5401,"Ġpedestrian":5402,"Ġrepelling":5403,"Ġframes":5404,"Ġcolumns":5405,"Ġdemonstrating":5406,"Ġarchway":5407,"Ġscratching":5408,"Ġscratches":5409,"Ġsqueezing":5410,"flowers":5411,"Ġmisses":5412,"Ġloading":5413,"Ġundress":5414,"Ġlearning":5415,"player":5416,"players":5417,"Ġreceiver":5418,"Ġreceives":5419,"tennis":5420,"Ġwashington":5421,"Ġcrystal":5422,"Ġmatters":5423,"Ġfeature":5424,"Ġfilms":5425,"Ġchatting":5426,"Ġobscured":5427,"Ġadjusting":5428,"Ġfreshly":5429,"upied":5430,"Ġoversized":5431,"Ġpriest":5432,"Ġthrew":5433,"Ġneedle":5434,"Ġmodel":5435,"Ġfocus":5436,"Ġdecline":5437,"Ġencour":5438,"Ġinterviews":5439,"Ġavoid":5440,"Ġsaxophone":5441,"baseball":5442,"Ġshawl":5443,"Ġunfinished":5444,"Ġvictory":5445,"Ġtraversed":5446,"Ġabandoned":5447,"Ġdefenders":5448,"Ġsomersault":5449,"Ġsenate":5450,"Ġsaber":5451,"Ġderby":5452,"Ġhumming":5453,"Ġangels":5454,"Ġchairlift":5455,"Ġfavor":5456,"Ġmerchandise":5457,"Ġstrawberry":5458,"Ġlanterns":5459,"Ġinstructor":5460,"Ġinvestigate":5461,"bearded":5462,"beautiful":5463,"distant":5464,"female":5465,"jected":5466,"police":5467,"rugby":5468,"swimmer":5469,"Ġirish":5470,"Ġaromatic":5471,"Ġsepar":5472,"Ġsledge":5473,"Ġolymp":5474,"Ġinspecting":5475,"Ġpooh":5476,"Ġpeanuts":5477,"Ġmoment":5478,"Ġmamma":5479,"Ġtinkerbell":5480,"Ġisrael":5481,"Ġlimousine":5482,"Ġnails":5483,"Ġlollip":5484,"Ġhopscotch":5485,"Ġdowntown":5486,"Ġupraised":5487,"Ġmodern":5488,"Ġfootprints":5489,"Ġattractive":5490,"Ġcorndogs":5491,"Ġalsatian":5492,"Ġaccompan":5493,"Ġrefrigerator":5494,"Ġcrocodile":5495,"Ġextravagant":5496,"acts":5497,"bus":5498,"bank":5499,"con":5500,"cam":5501,"cow":5502,"eve":5503,"ext":5504,"foo":5505,"german":5506,"ggan":5507,"gray":5508,"he":5509,"horse":5510,"iers":5511,"iped":5512,"iast":5513,"known":5514,"mil":5515,"mus":5516,"pic":5517,"pipe":5518,"run":5519,"school":5520,"tim":5521,"tour":5522,"tine":5523,"try":5524,"uge":5525,"uss":5526,"uted":5527,"uces":5528,"ually":5529,"var":5530,"vet":5531,"vine":5532,"wl":5533,"wuits":5534,"zy":5535,"Ġid":5536,"Ġking":5537,"Ġut":5538,"Ġest":5539,"Ġkey":5540,"Ġais":5541,"Ġaud":5542,"Ġawards":5543,"Ġawk":5544,"Ġaustr":5545,"inas":5546,"inter":5547,"thus":5548,"thnic":5549,"thouse":5550,"Ġslack":5551,"Ġsink":5552,"Ġsour":5553,"Ġsaw":5554,"Ġwit":5555,"Ġwool":5556,"Ġwest":5557,"Ġwol":5558,"Ġwere":5559,"Ġwec":5560,"Ġwashed":5561,"Ġwishes":5562,"Ġber":5563,"Ġbass":5564,"Ġbrow":5565,"Ġbamb":5566,"ances":5567,"Ġinspect":5568,"recked":5569,"ermen":5570,"erinas":5571,"Ġpers":5572,"Ġpomp":5573,"Ġdel":5574,"Ġdiv":5575,"Ġdeter":5576,"Ġdappled":5577,"Ġdingy":5578,"Ġcash":5579,"hire":5580,"arf":5581,"arm":5582,"aran":5583,"arks":5584,"arma":5585,"Ġmes":5586,"Ġmissing":5587,"Ġtea":5588,"Ġtide":5589,"Ġtap":5590,"Ġgates":5591,"Ġgho":5592,"Ġgift":5593,"Ġgigo":5594,"Ġdont":5595,"Ġfal":5596,"Ġfit":5597,"Ġfad":5598,"Ġhack":5599,"Ġham":5600,"attered":5601,"une":5602,"itical":5603,"Ġwigs":5604,"Ġwife":5605,"looking":5606,"Ġray":5607,"Ġrick":5608,"Ġrum":5609,"Ġratt":5610,"Ġrise":5611,"Ġrite":5612,"ester":5613,"ested":5614,"Ġstir":5615,"enger":5616,"Ġmanne":5617,"Ġmanned":5618,"Ġmanured":5619,"Ġbolding":5620,"wood":5621,"iddle":5622,"alling":5623,"Ġtobo":5624,"roud":5625,"tein":5626,"tead":5627,"orth":5628,"chnic":5629,"Ġluck":5630,"onlookers":5631,"Ġyell":5632,"Ġwhitewater":5633,"Ġhip":5634,"reds":5635,"Ġblacktop":5636,"ples":5637,"Ġstandard":5638,"Ġthatch":5639,"Ġjug":5640,"elvet":5641,"Ġlobby":5642,"Ġlocking":5643,"Ġlouis":5644,"Ġgrad":5645,"Ġgrinning":5646,"uty":5647,"thers":5648,"Ġrot":5649,"Ġroman":5650,"Ġangle":5651,"Ġanti":5652,"rtle":5653,"Ġshut":5654,"Ġshine":5655,"Ġshell":5656,"Ġshapes":5657,"urning":5658,"Ġhopes":5659,"stage":5660,"style":5661,"stume":5662,"Ġcoast":5663,"icians":5664,"llide":5665,"keep":5666,"Ġballerinas":5667,"Ġfile":5668,"Ġfights":5669,"Ġskate":5670,"Ġswung":5671,"velo":5672,"vender":5673,"Ġoverturned":5674,"Ġlecture":5675,"Ġloop":5676,"ads":5677,"Ġbec":5678,"Ġupwards":5679,"Ġpersons":5680,"Ġbacked":5681,"Ġcargo":5682,"Ġlaunch":5683,"Ġlavender":5684,"ablish":5685,"Ġbuff":5686,"Ġgreenish":5687,"Ġravine":5688,"Ġpara":5689,"Ġstreaked":5690,"Ġpoem":5691,"Ġspi":5692,"Ġspare":5693,"Ġspee":5694,"Ġsparks":5695,"airie":5696,"Ġeins":5697,"Ġejected":5698,"Ġethnic":5699,"Ġreck":5700,"Ġreve":5701,"Ġrequ":5702,"Ġrecre":5703,"Ġreeds":5704,"Ġreview":5705,"inder":5706,"Ġchina":5707,"Ġchaps":5708,"Ġchester":5709,"Ġdresser":5710,"Ġsund":5711,"Ġsundo":5712,"ulf":5713,"Ġshots":5714,"Ġlibert":5715,"Ġfailing":5716,"Ġfauces":5717,"ppet":5718,"down":5719,"Ġpuppet":5720,"igator":5721,"ions":5722,"Ġsunrise":5723,"Ġbuild":5724,"Ġfootfall":5725,"Ġdrawn":5726,"Ġfacepain":5727,"Ġwhale":5728,"Ġwharf":5729,"Ġarrow":5730,"Ġunited":5731,"Ġunison":5732,"Ġunknown":5733,"tors":5734,"Ġhairstyle":5735,"Ġmust":5736,"Ġmuster":5737,"Ġvast":5738,"Ġvelvet":5739,"Ġroadside":5740,"Ġcomfor":5741,"quins":5742,"emn":5743,"ements":5744,"Ġwalked":5745,"Ġcontemp":5746,"Ġconcentr":5747,"Ġpiles":5748,"Ġpiled":5749,"Ġbaring":5750,"Ġbarric":5751,"pedestri":5752,"Ġadd":5753,"Ġdef":5754,"Ġbrand":5755,"Ġbrings":5756,"Ġbritish":5757,"antage":5758,"Ġsuitcase":5759,"Ġleave":5760,"Ġpharma":5761,"Ġhanna":5762,"Ġriverbank":5763,"Ġamused":5764,"Ġcolliding":5765,"boyant":5766,"Ġnovel":5767,"Ġnoble":5768,"Ġnodu":5769,"Ġcaptors":5770,"Ġstock":5771,"Ġkickbox":5772,"Ġwindy":5773,"Ġcanon":5774,"Ġmary":5775,"Ġmarches":5776,"Ġbared":5777,"ttish":5778,"Ġhussies":5779,"Ġnightcl":5780,"Ġcasually":5781,"Ġshowed":5782,"Ġenvi":5783,"Ġenthus":5784,"Ġpropped":5785,"Ġexec":5786,"Ġtrailer":5787,"Ġchef":5788,"Ġalligator":5789,"Ġwintry":5790,"Ġsleigh":5791,"Ġbubbling":5792,"Ġattach":5793,"Ġveil":5794,"scent":5795,"Ġrestrain":5796,"Ġrestoring":5797,"Ġcorrid":5798,"Ġstreamers":5799,"Ġcurled":5800,"Ġcurved":5801,"Ġreturning":5802,"ments":5803,"Ġpolitical":5804,"Ġhalting":5805,"Ġskill":5806,"Ġphotographic":5807,"Ġartists":5808,"Ġpassed":5809,"Ġpassers":5810,"Ġwaterside":5811,"Ġsizes":5812,"ankment":5813,"Ġsloops":5814,"Ġcompetitor":5815,"Ġruins":5816,"Ġcigar":5817,"Ġmaster":5818,"Ġhugged":5819,"iums":5820,"biles":5821,"Ġmasked":5822,"costume":5823,"collide":5824,"Ġsweatshirts":5825,"apping":5826,"Ġbandaged":5827,"Ġbarely":5828,"Ġbarefoo":5829,"mother":5830,"Ġcrab":5831,"Ġcrate":5832,"Ġtunic":5833,"gyback":5834,"Ġflowering":5835,"Ġcreases":5836,"Ġquilt":5837,"Ġblankets":5838,"Ġtouched":5839,"Ġgloved":5840,"Ġhappening":5841,"Ġcontraction":5842,"Ġbalanced":5843,"Ġturtle":5844,"Ġpeter":5845,"ski":5846,"uster":5847,"Ġwrinkled":5848,"Ġbeauty":5849,"Ġnetwork":5850,"Ġmarkets":5851,"Ġrounding":5852,"Ġsheepdog":5853,"bride":5854,"Ġpanel":5855,"Ġpraying":5856,"Ġpicket":5857,"Ġlittered":5858,"Ġcuts":5859,"Ġcutlets":5860,"Ġshady":5861,"Ġshaded":5862,"Ġchained":5863,"Ġdirects":5864,"Ġdisplayed":5865,"Ġmeas":5866,"Ġbegin":5867,"Ġterrace":5868,"Ġclassroom":5869,"Ġwaterskis":5870,"Ġwaterskies":5871,"Ġcolla":5872,"Ġrising":5873,"Ġrises":5874,"Ġseeing":5875,"Ġdragged":5876,"Ġsaddled":5877,"guard":5878,"Ġdropped":5879,"Ġembraces":5880,"Ġembankment":5881,"Ġentangled":5882,"ronment":5883,"Ġclay":5884,"Ġpatient":5885,"Ġserv":5886,"Ġserving":5887,"Ġmemor":5888,"Ġcountertop":5889,"Ġslipper":5890,"Ġslippers":5891,"Ġadvertisements":5892,"Ġtwin":5893,"Ġeasily":5894,"Ġincense":5895,"Ġcorners":5896,"Ġpiggyback":5897,"artly":5898,"artment":5899,"Ġspreads":5900,"Ġspreading":5901,"itoriums":5902,"Ġlabelled":5903,"Ġlayer":5904,"Ġbelts":5905,"Ġbursa":5906,"Ġnotes":5907,"Ġportable":5908,"Ġbrushes":5909,"Ġcentiped":5910,"Ġhowling":5911,"snowboarders":5912,"Ġpeering":5913,"Ġpebble":5914,"Ġmessenger":5915,"Ġjudge":5916,"Ġflamboyant":5917,"Ġcontroller":5918,"Ġblame":5919,"angular":5920,"Ġpedal":5921,"Ġcelebrates":5922,"Ġwildflowers":5923,"Ġteammates":5924,"Ġfigures":5925,"Ġpillows":5926,"Ġrollerskates":5927,"Ġsnowmobiles":5928,"Ġbullet":5929,"Ġconversations":5930,"Ġengage":5931,"Ġrooftop":5932,"Ġelectrical":5933,"Ġassisting":5934,"Ġsalon":5935,"Ġweim":5936,"Ġgrows":5937,"Ġelephants":5938,"Ġtaxed":5939,"Ġlocal":5940,"Ġlounging":5941,"Ġrecording":5942,"Ġrecords":5943,"Ġcharging":5944,"Ġparasailer":5945,"bees":5946,"suffers":5947,"Ġtoilets":5948,"Ġproduce":5949,"Ġdepartment":5950,"Ġhuts":5951,"Ġbrothers":5952,"Ġactiv":5953,"Ġdumpster":5954,"bicycle":5955,"bicycling":5956,"bicyclists":5957,"Ġcaustic":5958,"Ġadmiring":5959,"Ġelevation":5960,"Ġgowns":5961,"Ġpuffs":5962,"Ġcompletely":5963,"Ġdandelions":5964,"Ġpinned":5965,"Ġrodent":5966,"Ġpassenger":5967,"Ġstruggling":5968,"Ġnavigation":5969,"Ġgrasping":5970,"Ġregister":5971,"Ġrushing":5972,"Ġrushes":5973,"flurry":5974,"Ġcrazy":5975,"Ġmixing":5976,"Ġfinished":5977,"Ġnurses":5978,"Ġspiral":5979,"Ġbattles":5980,"Ġroute":5981,"Ġroutine":5982,"Ġpresses":5983,"Ġvideotaped":5984,"Ġtaxi":5985,"Ġadmires":5986,"motorcycle":5987,"Ġprize":5988,"Ġprizes":5989,"Ġcabin":5990,"Ġcabby":5991,"Ġrifle":5992,"Ġrifles":5993,"Ġvegetation":5994,"Ġcuriously":5995,"Ġwristbands":5996,"Ġassistance":5997,"african":5998,"proof":5999,"Ġsearching":6000,"Ġinvolving":6001,"Ġdummy":6002,"Ġflings":6003,"Ġstaff":6004,"Ġcondemn":6005,"Ġulcer":6006,"Ġseems":6007,"Ġpurchas":6008,"Ġbarbed":6009,"Ġbedstead":6010,"Ġcompany":6011,"Ġhorseshoes":6012,"Ġdirectly":6013,"Ġentertain":6014,"lider":6015,"Ġfrowning":6016,"Ġwhispering":6017,"Ġfrisbees":6018,"rollerblader":6019,"friends":6020,"Ġastride":6021,"Ġbreeze":6022,"Ġtilted":6023,"Ġwizards":6024,"Ġrabbit":6025,"Ġtorn":6026,"Ġbluejeans":6027,"Ġcotton":6028,"Ġlambs":6029,"Ġsponge":6030,"Ġsocializing":6031,"Ġdramatically":6032,"Ġscottish":6033,"Ġrussell":6034,"Ġmechanical":6035,"Ġdepends":6036,"Ġdepicting":6037,"Ġfatigues":6038,"Ġhummingbird":6039,"Ġlollipop":6040,"extreme":6041,"military":6042,"musicians":6043,"tourist":6044,"various":6045,"Ġestablish":6046,"Ġaisle":6047,"Ġauditoriums":6048,"Ġawkward":6049,"Ġaustralian":6050,"Ġwolf":6051,"Ġwecwuits":6052,"Ġbernhard":6053,"Ġbamboo":6054,"Ġdetermin":6055,"Ġmesh":6056,"Ġghost":6057,"Ġgigolo":6058,"Ġfaded":6059,"Ġhammer":6060,"Ġrays":6061,"Ġrumm":6062,"Ġrattling":6063,"Ġtoboggan":6064,"Ġlucky":6065,"Ġskatepark":6066,"Ġspeech":6067,"Ġeinstein":6068,"Ġrequired":6069,"Ġsundown":6070,"Ġliberty":6071,"Ġfootfalls":6072,"Ġbarricade":6073,"pedestrians":6074,"Ġpharmacy":6075,"Ġnodules":6076,"Ġnightclub":6077,"Ġenvironment":6078,"Ġenthusiast":6079,"Ġexecuted":6080,"Ġcorridor":6081,"Ġbarefooted":6082,"Ġpatiently":6083,"Ġcentipede":6084,"agh":6085,"aur":6086,"acing":6087,"aiss":6088,"aired":6089,"ause":6090,"bre":6091,"ber":6092,"bon":6093,"bine":6094,"bright":6095,"crack":6096,"cility":6097,"cars":6098,"don":6099,"dge":6100,"dding":6101,"eing":6102,"eers":6103,"eckled":6104,"flo":6105,"fort":6106,"fely":6107,"gr":6108,"gun":6109,"grown":6110,"gies":6111,"gging":6112,"gical":6113,"gold":6114,"hand":6115,"hor":6116,"had":6117,"hang":6118,"ib":6119,"iple":6120,"ipped":6121,"jump":6122,"kay":6123,"kier":6124,"kerc":6125,"lying":6126,"lick":6127,"lif":6128,"mes":6129,"mem":6130,"male":6131,"mult":6132,"mimi":6133,"mely":6134,"near":6135,"nch":6136,"ngh":6137,"nut":6138,"ock":6139,"obile":6140,"olate":6141,"pu":6142,"par":6143,"pit":6144,"pige":6145,"parent":6146,"rying":6147,"rase":6148,"sle":6149,"sla":6150,"sea":6151,"sil":6152,"suit":6153,"tana":6154,"uish":6155,"unds":6156,"wear":6157,"watch":6158,"wise":6159,"ye":6160,"yal":6161,"zon":6162,"Ġx":6163,"Ġver":6164,"Ġren":6165,"Ġig":6166,"Ġign":6167,"Ġax":6168,"Ġaff":6169,"Ġaqu":6170,"ined":6171,"thorse":6172,"Ġswo":6173,"Ġsack":6174,"Ġsig":6175,"Ġsym":6176,"Ġsense":6177,"Ġsorts":6178,"Ġsappy":6179,"Ġwes":6180,"Ġwed":6181,"Ġwou":6182,"Ġwea":6183,"Ġble":6184,"Ġoars":6185,"Ġowl":6186,"theater":6187,"anke":6188,"anse":6189,"animal":6190,"angle":6191,"Ġink":6192,"Ġinform":6193,"Ġintern":6194,"rehouse":6195,"remely":6196,"eral":6197,"erce":6198,"Ġpis":6199,"Ġpun":6200,"Ġpear":6201,"Ġplow":6202,"Ġpay":6203,"Ġpran":6204,"Ġpatt":6205,"Ġpunch":6206,"Ġpins":6207,"Ġdear":6208,"Ġdas":6209,"Ġdam":6210,"Ġdug":6211,"Ġdip":6212,"Ġdaring":6213,"Ġdalm":6214,"rot":6215,"rocks":6216,"Ġcool":6217,"Ġciv":6218,"Ġcert":6219,"Ġcyl":6220,"hist":6221,"hitheater":6222,"leas":6223,"lent":6224,"arl":6225,"arat":6226,"arium":6227,"Ġma":6228,"Ġmr":6229,"Ġmad":6230,"Ġmill":6231,"Ġmac":6232,"Ġtin":6233,"Ġtired":6234,"Ġtip":6235,"Ġtubs":6236,"Ġtangled":6237,"Ġtattered":6238,"Ġgle":6239,"Ġgap":6240,"Ġdove":6241,"Ġdome":6242,"Ġdodge":6243,"ndy":6244,"lamp":6245,"Ġonce":6246,"Ġonward":6247,"isc":6248,"ising":6249,"isoner":6250,"Ġfu":6251,"Ġfear":6252,"Ġfed":6253,"Ġfoo":6254,"Ġhunched":6255,"atians":6256,"unks":6257,"Ġwiping":6258,"lot":6259,"Ġrad":6260,"Ġruble":6261,"Ġstu":6262,"Ġsty":6263,"Ġstood":6264,"Ġstony":6265,"Ġwhit":6266,"omobile":6267,"Ġbout":6268,"Ġtoast":6269,"Ġtopped":6270,"andy":6271,"ander":6272,"tect":6273,"tender":6274,"teland":6275,"ora":6276,"ord":6277,"asts":6278,"asion":6279,"Ġplains":6280,"etti":6281,"Ġjune":6282,"edience":6283,"onos":6284,"mper":6285,"mped":6286,"mples":6287,"Ġyanke":6288,"Ġhide":6289,"ghan":6290,"Ġatte":6291,"itti":6292,"Ġthing":6293,"acked":6294,"Ġjuke":6295,"eared":6296,"cement":6297,"Ġname":6298,"elunk":6299,"Ġredbull":6300,"ook":6301,"Ġlobster":6302,"Ġlongh":6303,"verted":6304,"Ġgrin":6305,"Ġgrand":6306,"Ġgrip":6307,"Ġrover":6308,"Ġroses":6309,"Ġroyal":6310,"Ġany":6311,"Ġanten":6312,"Ġyoungsters":6313,"Ġfrolick":6314,"Ġhistor":6315,"Ġshru":6316,"Ġshelf":6317,"Ġhoped":6318,"Ġholly":6319,"Ġhothouse":6320,"Ġsmell":6321,"Ġsmartly":6322,"Ġsmock":6323,"Ġsmeared":6324,"stri":6325,"storm":6326,"stance":6327,"bol":6328,"Ġcock":6329,"Ġcobb":6330,"icles":6331,"imonos":6332,"Ġfill":6333,"Ġfiery":6334,"Ġfierce":6335,"Ġsway":6336,"Ġovergrown":6337,"tol":6338,"tock":6339,"toon":6340,"boarder":6341,"Ġless":6342,"Ġleng":6343,"Ġlevel":6344,"Ġlemon":6345,"Ġloose":6346,"adood":6347,"semb":6348,"Ġupright":6349,"Ġpersonnel":6350,"Ġtrade":6351,"Ġcaries":6352,"Ġcarved":6353,"Ġcarbon":6354,"Ġladen":6355,"Ġlassies":6356,"Ġherds":6357,"ably":6358,"Ġbystand":6359,"Ġbust":6360,"Ġbuying":6361,"Ġkimonos":6362,"Ġraging":6363,"Ġraced":6364,"Ġrailed":6365,"rence":6366,"Ġparrot":6367,"Ġbills":6368,"Ġgroups":6369,"Ġpotters":6370,"Ġspin":6371,"Ġspade":6372,"Ġspell":6373,"Ġspraw":6374,"Ġspilled":6375,"Ġspagh":6376,"Ġspeckled":6377,"Ġev":6378,"Ġether":6379,"Ġeast":6380,"Ġease":6381,"Ġash":6382,"Ġmounds":6383,"Ġrender":6384,"Ġregre":6385,"Ġrenown":6386,"Ġreacts":6387,"Ġresemb":6388,"Ġmenu":6389,"Ġchats":6390,"Ġchallen":6391,"Ġcluster":6392,"imber":6393,"Ġotherwise":6394,"Ġoffstage":6395,"Ġwaking":6396,"Ġwarehouse":6397,"Ġmountaineers":6398,"Ġsug":6399,"Ġsucks":6400,"Ġsol":6401,"Ġbases":6402,"Ġmop":6403,"Ġmock":6404,"Ġmoved":6405,"Ġmowed":6406,"Ġshock":6407,"Ġshocked":6408,"Ġlives":6409,"Ġhandkerc":6410,"umin":6411,"Ġfacility":6412,"ures":6413,"eping":6414,"Ġgod":6415,"Ġgot":6416,"Ġgoth":6417,"ppery":6418,"Ġheadlights":6419,"Ġpuzzling":6420,"igor":6421,"igzag":6422,"Ġsunk":6423,"Ġsunflow":6424,"peless":6425,"pective":6426,"Ġclosing":6427,"dynam":6428,"Ġcarous":6429,"Ġdraped":6430,"Ġdrunk":6431,"Ġhilltop":6432,"Ġblown":6433,"Ġiron":6434,"Ġsection":6435,"Ġflu":6436,"Ġflung":6437,"Ġguided":6438,"Ġarmbands":6439,"Ġmotorboat":6440,"Ġvantage":6441,"Ġvigor":6442,"Ġcampground":6443,"Ġbasketballs":6444,"Ġhorn":6445,"Ġleaped":6446,"Ġleapfro":6447,"Ġscuff":6448,"Ġscared":6449,"Ġscouts":6450,"Ġsites":6451,"new":6452,"Ġgreyish":6453,"Ġperformed":6454,"Ġbasement":6455,"Ġhamper":6456,"Ġobedience":6457,"Ġkissed":6458,"Ġflop":6459,"racial":6460,"Ġcomic":6461,"Ġcombine":6462,"Ġcomfort":6463,"Ġconfe":6464,"Ġtender":6465,"Ġhighland":6466,"Ġdane":6467,"ished":6468,"Ġcoated":6469,"Ġadv":6470,"Ġaddress":6471,"Ġstrikes":6472,"Ġdew":6473,"Ġdebr":6474,"Ġdevelo":6475,"Ġbrass":6476,"Ġdarker":6477,"bbles":6478,"bbell":6479,"bbery":6480,"Ġphrase":6481,"Ġages":6482,"Ġamaz":6483,"Ġafghan":6484,"Ġnothing":6485,"Ġwheat":6486,"Ġdrill":6487,"Ġdrivers":6488,"Ġhealing":6489,"Ġopened":6490,"iac":6491,"Ġsetter":6492,"Ġmarried":6493,"Ġmarina":6494,"Ġcliffside":6495,"oked":6496,"Ġbodyguard":6497,"Ġfishermen":6498,"Ġbathe":6499,"Ġhund":6500,"Ġsprings":6501,"Ġlighter":6502,"Ġgaze":6503,"Ġshowered":6504,"Ġshowering":6505,"Ġflooring":6506,"Ġprevent":6507,"Ġhousing":6508,"Ġenfor":6509,"Ġproper":6510,"Ġprocess":6511,"Ġexting":6512,"Ġexisting":6513,"Ġexha":6514,"rupy":6515,"Ġcheered":6516,"Ġcheese":6517,"Ġtaller":6518,"weed":6519,"Ġdaytime":6520,"Ġwinking":6521,"Ġslender":6522,"Ġgoalkeep":6523,"Ġattraction":6524,"Ġlanded":6525,"Ġleaned":6526,"Ġworshi":6527,"Ġcord":6528,"Ġcoral":6529,"Ġstreaming":6530,"Ġstreamed":6531,"yclist":6532,"Ġdescent":6533,"Ġdesolate":6534,"Ġfemora":6535,"Ġcurling":6536,"Ġretaining":6537,"Ġallow":6538,"Ġalter":6539,"Ġdisgu":6540,"Ġsilk":6541,"Ġapplies":6542,"Ġappalling":6543,"Ġapplying":6544,"Ġapparat":6545,"ricans":6546,"Ġboot":6547,"Ġsubstance":6548,"Ġwatersp":6549,"Ġsipping":6550,"Ġbrea":6551,"Ġnecks":6552,"Ġsnarl":6553,"Ġslough":6554,"Ġsloping":6555,"Ġshouts":6556,"Ġshouting":6557,"Ġraining":6558,"Ġviews":6559,"elderly":6560,"Ġpaperback":6561,"Ġsquares":6562,"atory":6563,"Ġpackage":6564,"Ġpackages":6565,"Ġmonk":6566,"Ġmontana":6567,"Ġmuslin":6568,"Ġrugged":6569,"Ġbands":6570,"Ġbandage":6571,"Ġbandages":6572,"Ġbounded":6573,"Ġrafters":6574,"Ġtuning":6575,"Ġgorge":6576,"Ġoppose":6577,"Ġelection":6578,"Ġsave":6579,"Ġsafi":6580,"Ġsafely":6581,"Ġsamples":6582,"Ġcreated":6583,"Ġsupports":6584,"Ġquart":6585,"Ġringing":6586,"Ġfuneral":6587,"Ġstride":6588,"Ġstruck":6589,"Ġstraining":6590,"Ġfring":6591,"Ġcontin":6592,"Ġwrists":6593,"Ġbearer":6594,"Ġnets":6595,"Ġchewed":6596,"Ġshielding":6597,"Ġtugboat":6598,"Ġfangs":6599,"Ġbushy":6600,"brid":6601,"Ġapiece":6602,"Ġindia":6603,"Ġpanting":6604,"Ġpride":6605,"Ġprairie":6606,"Ġprisoner":6607,"Ġlicked":6608,"Ġroughly":6609,"Ġlinks":6610,"Ġjoke":6611,"Ġcardiac":6612,"Ġmedit":6613,"Ġmeat":6614,"Ġranger":6615,"Ġdecoration":6616,"Ġdecorations":6617,"Ġexpanse":6618,"Ġdragsters":6619,"Ġfingerpain":6620,"guage":6621,"guins":6622,"guards":6623,"gundy":6624,"Ġdrooping":6625,"Ġtravelling":6626,"Ġclause":6627,"Ġgarment":6628,"Ġpatrick":6629,"Ġserves":6630,"Ġserved":6631,"Ġwraps":6632,"Ġprotects":6633,"hopeless":6634,"Ġparasurf":6635,"Ġslab":6636,"Ġslam":6637,"Ġintertube":6638,"Ġintervening":6639,"Ġmatador":6640,"Ġtower":6641,"Ġpeaceful":6642,"Ġdinos":6643,"Ġtickets":6644,"Ġpenc":6645,"Ġpenguins":6646,"Ġheadscarfs":6647,"Ġpigeon":6648,"Ġtrilling":6649,"Ġnaval":6650,"Ġprotests":6651,"Ġprotesting":6652,"Ġburst":6653,"Ġburgundy":6654,"Ġdiscuss":6655,"Ġdevices":6656,"Ġspeaker":6657,"Ġgroceries":6658,"Ġkept":6659,"Ġpowers":6660,"Ġimages":6661,"Ġthought":6662,"Ġbarrels":6663,"Ġcooks":6664,"Ġchurning":6665,"Ġvara":6666,"Ġvarying":6667,"Ġscandal":6668,"Ġexcit":6669,"Ġcollection":6670,"Ġcollecting":6671,"Ġcollects":6672,"Ġauto":6673,"Ġautomobile":6674,"Ġpebbles":6675,"Ġreceive":6676,"Ġblazing":6677,"Ġpedd":6678,"Ġmagic":6679,"Ġexamines":6680,"Ġfarmers":6681,"Ġkeeping":6682,"Ġkeeper":6683,"Ġchalkboard":6684,"Ġrollerskater":6685,"athlet":6686,"Ġheard":6687,"Ġhearts":6688,"Ġsnowmob":6689,"Ġvisitor":6690,"Ġengaged":6691,"Ġengulf":6692,"Ġtouchdown":6693,"trunks":6694,"Ġassailing":6695,"Ġsalary":6696,"Ġweb":6697,"Ġweird":6698,"Ġintense":6699,"Ġgoods":6700,"Ġcompleting":6701,"wheel":6702,"gulls":6703,"Ġidentically":6704,"Ġwasteland":6705,"Ġcrank":6706,"Ġrecorder":6707,"rider":6708,"Ġsimon":6709,"fighters":6710,"Ġbadge":6711,"Ġdotted":6712,"Ġeffort":6713,"dirty":6714,"Ġzigzag":6715,"Ġcrops":6716,"Ġshelves":6717,"Ġtransit":6718,"Ġeveryone":6719,"Ġparachutist":6720,"Ġweek":6721,"Ġbeverages":6722,"Ġextremely":6723,"Ġsecured":6724,"Ġelevated":6725,"Ġminers":6726,"Ġtarso":6727,"Ġtucked":6728,"Ġcommander":6729,"Ġofficials":6730,"Ġelectronics":6731,"Ġbillboards":6732,"Ġescape":6733,"Ġmelted":6734,"Ġdonkey":6735,"Ġyawns":6736,"Ġoverhanging":6737,"Ġlabradood":6738,"Ġbooksh":6739,"Ġboundary":6740,"Ġdemonstration":6741,"Ġdemonstrates":6742,"goers":6743,"ulated":6744,"Ġgrasp":6745,"Ġregion":6746,"Ġsqueezed":6747,"Ġsqueeze":6748,"fluffy":6749,"ford":6750,"Ġpaste":6751,"Ġcramped":6752,"Ġmissed":6753,"Ġmixed":6754,"Ġlanguage":6755,"Ġnursing":6756,"Ġloaded":6757,"Ġlearn":6758,"batics":6759,"Ġpouches":6760,"Ġdye":6761,"Ġmattress":6762,"Ġremote":6763,"Ġremoving":6764,"Ġsupporter":6765,"Ġvideotaping":6766,"Ġtoothbrush":6767,"Ġtaxes":6768,"motorcyclist":6769,"climber":6770,"Ġsashes":6771,"Ġpriests":6772,"Ġarabian":6773,"Ġfocused":6774,"Ġvegetables":6775,"Ġornament":6776,"Ġornamental":6777,"Ġsaxophones":6778,"Ġsearch":6779,"Ġoxen":6780,"Ġoxford":6781,"Ġoccupied":6782,"Ġoccasion":6783,"Ġdumbbell":6784,"Ġferries":6785,"Ġflinging":6786,"Ġstaples":6787,"Ġlodge":6788,"Ġlodges":6789,"Ġultim":6790,"Ġblossoming":6791,"Ġblossoms":6792,"Ġillustr":6793,"Ġpurchase":6794,"Ġhorseshoe":6795,"Ġspecialized":6796,"otic":6797,"Ġelse":6798,"Ġawaiting":6799,"Ġcrib":6800,"Ġmingle":6801,"Ġmingling":6802,"Ġangry":6803,"Ġfixing":6804,"Ġbuddha":6805,"Ġbuddhist":6806,"Ġparagl":6807,"Ġparaglider":6808,"Ġemitting":6809,"Ġsunbathe":6810,"Ġtemple":6811,"Ġamerica":6812,"Ġamericans":6813,"Ġcustomer":6814,"Ġaccep":6815,"Ġaerodynam":6816,"Ġflexible":6817,"twin":6818,"Ġamphitheater":6819,"Ġadoles":6820,"Ġsyrupy":6821,"Ġmasters":6822,"Ġtumble":6823,"Ġfinal":6824,"Ġhurrying":6825,"Ġsteady":6826,"Ġnipple":6827,"Ġgrimace":6828,"Ġanticip":6829,"Ġclutching":6830,"Ġlighthorse":6831,"Ġhandicapped":6832,"Ġdraft":6833,"Ġcolonies":6834,"Ġvenus":6835,"Ġvacant":6836,"Ġconfused":6837,"Ġadorned":6838,"Ġcaptured":6839,"Ġcanada":6840,"Ġenergies":6841,"Ġquietly":6842,"Ġaccents":6843,"Ġencouraging":6844,"Ġfavorite":6845,"Ġseparate":6846,"Ġolympics":6847,"Ġaccompanied":6848,"busy":6849,"picture":6850,"runners":6851,"Ġkeyboard":6852,"interracial":6853,"Ġsource":6854,"Ġperspective":6855,"Ġmannequins":6856,"Ġthatched":6857,"Ġgrades":6858,"Ġcoastline":6859,"Ġbecause":6860,"Ġspikes":6861,"Ġreckless":6862,"Ġrevealing":6863,"Ġsundry":6864,"Ġfacepaint":6865,"Ġnovelty":6866,"Ġrestraint":6867,"Ġservice":6868,"Ġmemorial":6869,"Ġweimaran":6870,"Ġactivity":6871,"Ġpurchasing":6872,"Ġestablishment":6873,"Ġawkwardly":6874,"Ġdetermined":6875,"Ġghostb":6876,"aissance":6877,"cracker":6878,"donald":6879,"guns":6880,"horses":6881,"hadow":6882,"multiple":6883,"puppy":6884,"pigeons":6885,"seagulls":6886,"Ġrenaissance":6887,"Ġignoring":6888,"Ġaquarium":6889,"Ġswooping":6890,"Ġsigning":6891,"Ġsymbol":6892,"Ġwestern":6893,"Ġpistol":6894,"Ġprancing":6895,"Ġpatties":6896,"Ġdasch":6897,"Ġdamaged":6898,"Ġdalmatians":6899,"Ġcooling":6900,"Ġcivil":6901,"Ġcertific":6902,"Ġmacdonald":6903,"Ġradio":6904,"Ġjukebox":6905,"Ġantenna":6906,"Ġfrolicking":6907,"Ġshrubbery":6908,"Ġhollywood":6909,"Ġcobbler":6910,"Ġlength":6911,"Ġlemonade":6912,"Ġbystanders":6913,"Ġspaghetti":6914,"Ġregret":6915,"Ġchallenge":6916,"Ġlivestock":6917,"Ġhandkerchi":6918,"Ġsunflower":6919,"Ġcarousal":6920,"Ġleapfrog":6921,"Ġscuffle":6922,"Ġconference":6923,"Ġdebris":6924,"Ġenforcement":6925,"Ġexhaust":6926,"Ġgoalkeeper":6927,"Ġapparatus":6928,"Ġquarters":6929,"Ġfingerpaints":6930,"Ġdinosaur":6931,"Ġengulfed":6932,"Ġlabradoodle":6933,"Ġultimate":6934,"ah":6935,"aid":6936,"acle":6937,"aign":6938,"ailed":6939,"ailor":6940,"bu":6941,"bal":6942,"bed":6943,"bers":6944,"beach":6945,"bum":6946,"bare":6947,"buck":6948,"book":6949,"cat":6950,"cid":6951,"cri":6952,"cycle":6953,"catch":6954,"cag":6955,"cage":6956,"cade":6957,"cricket":6958,"cuba":6959,"cument":6960,"cupied":6961,"dwe":6962,"eon":6963,"ebe":6964,"evil":6965,"fish":6966,"fessional":6967,"filled":6968,"gn":6969,"gin":6970,"gth":6971,"gear":6972,"gles":6973,"gled":6974,"gist":6975,"gage":6976,"gest":6977,"groud":6978,"hn":6979,"hed":6980,"hers":6981,"hea":6982,"ham":6983,"hind":6984,"hem":6985,"how":6986,"hol":6987,"here":6988,"hose":6989,"haps":6990,"ii":6991,"ien":6992,"iver":6993,"iller":6994,"iant":6995,"ibb":6996,"ject":6997,"japanese":6998,"ker":6999,"ked":7000,"kers":7001,"lers":7002,"mi":7003,"mic":7004,"mine":7005,"mow":7006,"muff":7007,"middle":7008,"nal":7009,"nes":7010,"nine":7011,"nment":7012,"nest":7013,"oy":7014,"ola":7015,"ote":7016,"oting":7017,"ody":7018,"osing":7019,"pak":7020,"perf":7021,"pries":7022,"plane":7023,"pants":7024,"piece":7025,"pads":7026,"paid":7027,"ris":7028,"ride":7029,"riding":7030,"rists":7031,"rmo":7032,"sy":7033,"sks":7034,"sery":7035,"sque":7036,"swers":7037,"sunk":7038,"tle":7039,"tall":7040,"tack":7041,"tic":7042,"tain":7043,"tted":7044,"turf":7045,"tub":7046,"tally":7047,"tattoo":7048,"train":7049,"tens":7050,"uet":7051,"ucer":7052,"ulate":7053,"vul":7054,"vish":7055,"war":7056,"wat":7057,"wall":7058,"wind":7059,"wag":7060,"wrest":7061,"ware":7062,"wrap":7063,"well":7064,"welling":7065,"who":7066,"weds":7067,"wrecked":7068,"yor":7069,"you":7070,"yote":7071,"zmat":7072,"Ġing":7073,"Ġer":7074,"Ġage":7075,"Ġace":7076,"Ġari":7077,"Ġaime":7078,"Ġastro":7079,"ino":7080,"int":7081,"inside":7082,"thol":7083,"ingly":7084,"Ġsan":7085,"Ġsatch":7086,"Ġsip":7087,"Ġsys":7088,"Ġsession":7089,"Ġsalm":7090,"Ġsams":7091,"Ġwan":7092,"Ġwon":7093,"Ġwel":7094,"Ġwoo":7095,"Ġwran":7096,"Ġwrecked":7097,"Ġbits":7098,"Ġbaked":7099,"Ġbitter":7100,"Ġbisc":7101,"Ġou":7102,"Ġore":7103,"Ġour":7104,"Ġoran":7105,"Ġoust":7106,"Ġoval":7107,"Ġowing":7108,"ancing":7109,"anges":7110,"Ġinverted":7111,"resh":7112,"referee":7113,"rescent":7114,"eran":7115,"erves":7116,"erted":7117,"eria":7118,"erature":7119,"Ġphi":7120,"Ġpiling":7121,"Ġpant":7122,"Ġpensive":7123,"Ġproud":7124,"Ġdre":7125,"Ġdue":7126,"Ġdag":7127,"Ġdale":7128,"Ġdie":7129,"Ġdivers":7130,"Ġdwelling":7131,"Ġthermo":7132,"rock":7133,"rote":7134,"ropes":7135,"rolin":7136,"robatics":7137,"rovul":7138,"Ġcrest":7139,"Ġcuff":7140,"Ġciti":7141,"Ġcubs":7142,"Ġcattle":7143,"hip":7144,"hitect":7145,"arn":7146,"arist":7147,"Ġmy":7148,"Ġmoun":7149,"Ġmate":7150,"Ġtab":7151,"Ġtying":7152,"Ġturf":7153,"Ġtale":7154,"Ġtart":7155,"Ġtamb":7156,"Ġtints":7157,"Ġtrous":7158,"Ġtesting":7159,"Ġtested":7160,"Ġtapping":7161,"Ġgon":7162,"Ġgain":7163,"Ġgay":7164,"Ġgna":7165,"Ġdoub":7166,"Ġdough":7167,"Ġdomin":7168,"Ġdocument":7169,"ndes":7170,"ndic":7171,"laying":7172,"ladies":7173,"Ġones":7174,"Ġonlook":7175,"isers":7176,"isted":7177,"Ġfame":7178,"Ġfant":7179,"Ġfru":7180,"Ġfatt":7181,"Ġfists":7182,"Ġfound":7183,"Ġfiddle":7184,"ckles":7185,"ckering":7186,"alo":7187,"aly":7188,"Ġhun":7189,"Ġhom":7190,"Ġhate":7191,"Ġhumb":7192,"atic":7193,"atening":7194,"ately":7195,"uniform":7196,"ities":7197,"itled":7198,"itted":7199,"Ġwido":7200,"Ġwicket":7201,"lone":7202,"loye":7203,"logist":7204,"Ġrd":7205,"Ġstren":7206,"Ġstiff":7207,"Ġstance":7208,"Ġstains":7209,"Ġstacks":7210,"Ġstunning":7211,"Ġstabs":7212,"Ġstunt":7213,"Ġstacked":7214,"enting":7215,"Ġmanner":7216,"Ġmantle":7217,"Ġwhips":7218,"Ġwhipping":7219,"Ġbooming":7220,"Ġbohem":7221,"wolf":7222,"allic":7223,"Ġtoes":7224,"Ġtort":7225,"Ġtoll":7226,"Ġtook":7227,"Ġtobag":7228,"rouded":7229,"andel":7230,"tem":7231,"tep":7232,"orting":7233,"ories":7234,"ords":7235,"orary":7236,"ason":7237,"ashirt":7238,"asak":7239,"aster":7240,"Ġplacid":7241,"ety":7242,"etic":7243,"cho":7244,"chure":7245,"Ġlump":7246,"Ġplaygroud":7247,"Ġja":7248,"Ġjr":7249,"mph":7250,"Ġyear":7251,"Ġyach":7252,"Ġyarn":7253,"Ġhiss":7254,"Ġhidd":7255,"Ġwatered":7256,"ounts":7257,"redible":7258,"redevil":7259,"not":7260,"Ġthri":7261,"ershirt":7262,"ersus":7263,"erskier":7264,"ough":7265,"ealed":7266,"Ġwaterproof":7267,"cely":7268,"Ġnut":7269,"Ġnine":7270,"Ġnorth":7271,"Ġloan":7272,"Ġlock":7273,"Ġlowe":7274,"Ġlonel":7275,"Ġlouse":7276,"Ġlocks":7277,"Ġlooming":7278,"vergreen":7279,"Ġgrap":7280,"Ġgrating":7281,"Ġgrappled":7282,"Ġgritti":7283,"utarist":7284,"Ġrose":7285,"river":7286,"rimm":7287,"Ġantr":7288,"Ġanswers":7289,"Ġyoungster":7290,"Ġsnowp":7291,"Ġsnowed":7292,"Ġsnowfield":7293,"Ġsnowstorm":7294,"Ġfrocks":7295,"Ġfrosty":7296,"Ġsham":7297,"Ġshorth":7298,"Ġshrouded":7299,"urated":7300,"Ġhoes":7301,"Ġholy":7302,"Ġhobby":7303,"Ġsmear":7304,"Ġsmack":7305,"sts":7306,"star":7307,"stud":7308,"stop":7309,"stacks":7310,"both":7311,"bott":7312,"Ġoutran":7313,"Ġoutwards":7314,"Ġcos":7315,"Ġcot":7316,"Ġcoron":7317,"Ġcocks":7318,"Ġcocked":7319,"Ġcoyote":7320,"icans":7321,"Ġgrassland":7322,"iment":7323,"lliant":7324,"Ġdownward":7325,"Ġdownwards":7326,"aint":7327,"Ġballplayer":7328,"amble":7329,"amond":7330,"Ġswar":7331,"Ġswam":7332,"Ġswerves":7333,"Ġoverflow":7334,"Ġlets":7335,"Ġleast":7336,"ilies":7337,"Ġbeats":7338,"seat":7339,"seated":7340,"seeing":7341,"kshire":7342,"Ġbackbe":7343,"Ġbackseat":7344,"Ġcarab":7345,"Ġcarav":7346,"Ġcartoon":7347,"Ġlas":7348,"Ġlakes":7349,"Ġlascar":7350,"Ġlagging":7351,"Ġlavish":7352,"tstep":7353,"aph":7354,"Ġrockstar":7355,"ayer":7356,"about":7357,"Ġbuckled":7358,"Ġbudwe":7359,"Ġbuckles":7360,"Ġknow":7361,"Ġkaw":7362,"Ġparting":7363,"Ġpots":7364,"Ġpops":7365,"Ġspl":7366,"Ġspitting":7367,"Ġspool":7368,"Ġspite":7369,"Ġsparrow":7370,"Ġspelunk":7371,"airborne":7372,"airplane":7373,"Ġegy":7374,"Ġevergreen":7375,"Ġask":7376,"Ġfork":7377,"Ġforce":7378,"ghtened":7379,"resses":7380,"Ġrect":7381,"Ġrepla":7382,"Ġreco":7383,"Ġresp":7384,"Ġreleas":7385,"Ġbeachgoers":7386,"Ġmouthguards":7387,"Ġchins":7388,"Ġchoke":7389,"Ġchart":7390,"Ġcherry":7391,"Ġchests":7392,"Ġchanging":7393,"Ġchanges":7394,"Ġchandel":7395,"Ġdressing":7396,"Ġjumpsuits":7397,"ified":7398,"Ġclump":7399,"Ġclips":7400,"Ġclipped":7401,"Ġneat":7402,"rowing":7403,"Ġwaists":7404,"Ġwavy":7405,"ormer":7406,"Ġsoil":7407,"Ġsoled":7408,"uling":7409,"ulting":7410,"Ġmot":7411,"Ġmown":7412,"Ġmott":7413,"Ġmosque":7414,"rangement":7415,"Ġhandling":7416,"Ġhandled":7417,"Ġsidelong":7418,"umed":7419,"Ġfaced":7420,"Ġfaith":7421,"Ġpoolside":7422,"vested":7423,"ourines":7424,"ctured":7425,"sha":7426,"shing":7427,"show":7428,"shroom":7429,"shot":7430,"Ġdirtbi":7431,"Ġsurgical":7432,"Ġheadway":7433,"Ġheadphone":7434,"Ġheadlong":7435,"Ġheadlamp":7436,"Ġheadgear":7437,"Ġheadwrap":7438,"Ġpuzzled":7439,"Ġpudding":7440,"Ġpuckering":7441,"ionately":7442,"Ġfootp":7443,"Ġfootbrid":7444,"lyweds":7445,"ffron":7446,"pendic":7447,"Ġholder":7448,"Ġcloak":7449,"Ġcloaks":7450,"Ġshorter":7451,"Ġpails":7452,"Ġpaget":7453,"Ġpavil":7454,"Ġpamph":7455,"Ġcause":7456,"Ġcathol":7457,"Ġcarolin":7458,"iest":7459,"Ġdrug":7460,"aggling":7461,"Ġslink":7462,"Ġslice":7463,"Ġslinging":7464,"Ġslices":7465,"Ġarri":7466,"Ġarran":7467,"Ġargu":7468,"Ġarray":7469,"Ġarrangement":7470,"Ġunpaid":7471,"Ġbloom":7472,"Ġbloody":7473,"Ġsex":7474,"Ġseas":7475,"Ġsemi":7476,"Ġguides":7477,"Ġfoal":7478,"Ġiting":7479,"Ġitaly":7480,"Ġmule":7481,"Ġmushroom":7482,"ineers":7483,"Ġvist":7484,"Ġversus":7485,"erful":7486,"Ġfrill":7487,"Ġfrightened":7488,"Ġcampaign":7489,"Ġhorror":7490,"Ġscow":7491,"Ġscrap":7492,"Ġscoring":7493,"Ġscoop":7494,"Ġscrimm":7495,"Ġgrounded":7496,"Ġundermine":7497,"restless":7498,"Ġhazmat":7499,"Ġflorists":7500,"Ġflorescent":7501,"rail":7502,"rafting":7503,"Ġcommer":7504,"quarter":7505,"Ġconver":7506,"Ġconven":7507,"Ġconvention":7508,"Ġtex":7509,"Ġtend":7510,"Ġtechnic":7511,"Ġrice":7512,"Ġrivers":7513,"Ġrioting":7514,"Ġlongsle":7515,"Ġpilots":7516,"Ġpilot":7517,"arel":7518,"Ġsignals":7519,"Ġdanger":7520,"Ġdangles":7521,"ishing":7522,"Ġadvent":7523,"Ġtreats":7524,"Ġtreated":7525,"Ġbring":7526,"photo":7527,"ugging":7528,"Ġdarkly":7529,"Ġdarkness":7530,"Ġphys":7531,"Ġtablet":7532,"Ġflats":7533,"Ġagit":7534,"Ġagent":7535,"Ġagents":7536,"Ġaggress":7537,"Ġflows":7538,"Ġbest":7539,"Ġamount":7540,"Ġamiss":7541,"Ġamnest":7542,"Ġamounts":7543,"Ġcollision":7544,"Ġnondes":7545,"Ġcapture":7546,"psable":7547,"Ġmidges":7548,"Ġmidian":7549,"Ġbirdcage":7550,"Ġbaggage":7551,"Ġdrifting":7552,"Ġstopping":7553,"Ġstocking":7554,"Ġkickfl":7555,"ectionately":7556,"Ġimperson":7557,"Ġwindfall":7558,"Ġsurrounds":7559,"Ġcanned":7560,"Ġcancers":7561,"Ġcannot":7562,"Ġbackpackers":7563,"Ġmarine":7564,"Ġmarque":7565,"outdoor":7566,"Ġbodysuit":7567,"Ġstepped":7568,"Ġboarded":7569,"ubland":7570,"Ġhump":7571,"Ġhusks":7572,"hound":7573,"housing":7574,"houette":7575,"somebody":7576,"Ġgauge":7577,"Ġgraze":7578,"Ġskyward":7579,"dded":7580,"Ġedges":7581,"Ġpointer":7582,"Ġcascade":7583,"Ġshowgirl":7584,"Ġshowgirls":7585,"Ġfireball":7586,"Ġfirefighters":7587,"Ġfirehose":7588,"Ġbrimmed":7589,"Ġbrilliant":7590,"Ġforests":7591,"Ġoutfitted":7592,"Ġpreser":7593,"Ġprecar":7594,"Ġpregn":7595,"Ġenact":7596,"Ġenough":7597,"Ġpoleon":7598,"Ġsurfboarding":7599,"Ġprop":7600,"Ġpromo":7601,"Ġexit":7602,"Ġexotic":7603,"rupt":7604,"estal":7605,"estion":7606,"estyle":7607,"Ġbanister":7608,"Ġdays":7609,"Ġpartner":7610,"Ġhardtack":7611,"udes":7612,"Ġvie":7613,"Ġwinning":7614,"Ġstarbuck":7615,"olished":7616,"Ġgiven":7617,"Ġgiants":7618,"Ġgoaltender":7619,"Ġscarcely":7620,"Ġstatute":7621,"Ġplans":7622,"Ġplugging":7623,"Ġbetter":7624,"Ġdistri":7625,"Ġmetallic":7626,"Ġvessel":7627,"Ġworried":7628,"Ġtrampled":7629,"Ġstorefront":7630,"Ġlawnmow":7631,"zzed":7632,"Ġmetals":7633,"Ġfours":7634,"Ġrollerco":7635,"Ġcurl":7636,"Ġcurls":7637,"Ġretro":7638,"Ġretail":7639,"Ġalways":7640,"Ġalco":7641,"Ġalbert":7642,"Ġalbum":7643,"Ġdisco":7644,"Ġharmon":7645,"Ġharvested":7646,"Ġpoland":7647,"Ġdoorbell":7648,"Ġhalo":7649,"Ġhalves":7650,"Ġapparent":7651,"Ġapparel":7652,"Ġcouches":7653,"Ġspoke":7654,"Ġsubm":7655,"Ġsubject":7656,"deer":7657,"Ġpassage":7658,"Ġsimps":7659,"Ġbreast":7660,"Ġbreasts":7661,"Ġequino":7662,"Ġprepared":7663,"Ġsnugg":7664,"Ġsnorted":7665,"Ġsnapping":7666,"smoke":7667,"Ġrust":7668,"Ġrugs":7669,"Ġrustic":7670,"itions":7671,"Ġviewing":7672,"Ġcounty":7673,"Ġlifeless":7674,"Ġformed":7675,"Ġsweatsuit":7676,"Ġsquad":7677,"Ġplanting":7678,"Ġplanets":7679,"Ġsteal":7680,"Ġsteered":7681,"Ġshepherds":7682,"corted":7683,"Ġbandit":7684,"Ġcrates":7685,"gym":7686,"Ġelement":7687,"Ġrollerblade":7688,"Ġrollerbladers":7689,"Ġearmuff":7690,"Ġsafe":7691,"Ġsaucer":7692,"Ġsaffron":7693,"Ġwars":7694,"Ġcrew":7695,"Ġcreates":7696,"Ġsupported":7697,"Ġsupporting":7698,"Ġdanceflo":7699,"Ġquite":7700,"Ġquitted":7701,"Ġquestion":7702,"Ġbullion":7703,"Ġbullfight":7704,"Ġbullfighter":7705,"Ġsportsman":7706,"Ġsportswear":7707,"Ġstraggling":7708,"Ġpaintbrush":7709,"Ġforeign":7710,"Ġforearm":7711,"Ġhappier":7712,"Ġhappens":7713,"Ġpeterson":7714,"Ġpetted":7715,"Ġleader":7716,"Ġleaders":7717,"usters":7718,"Ġhomebase":7719,"chested":7720,"Ġshit":7721,"Ġshiver":7722,"Ġshippers":7723,"Ġfanning":7724,"Ġfanny":7725,"Ġbrook":7726,"Ġbrochure":7727,"brunette":7728,"Ġphotography":7729,"Ġpanelling":7730,"Ġpanelled":7731,"Ġspeedboat":7732,"Ġemploye":7733,"Ġprayer":7734,"Ġliterature":7735,"Ġfairies":7736,"Ġgardening":7737,"Ġways":7738,"Ġsniffed":7739,"Ġtroop":7740,"stream":7741,"Ġspectacle":7742,"Ġroughhousing":7743,"Ġschoolgirls":7744,"Ġjohn":7745,"Ġheadbands":7746,"speed":7747,"Ġmedal":7748,"Ġbegan":7749,"Ġmotorbiker":7750,"Ġtermin":7751,"Ġtermed":7752,"Ġcarpi":7753,"Ġrapidly":7754,"iously":7755,"Ġranged":7756,"Ġsleek":7757,"Ġexper":7758,"Ġexpand":7759,"Ġexpos":7760,"Ġexposing":7761,"Ġchips":7762,"Ġchief":7763,"Ġchicag":7764,"Ġdrags":7765,"Ġprinces":7766,"Ġprincess":7767,"aneous":7768,"Ġaccess":7769,"Ġacrobatics":7770,"Ġentitled":7771,"rons":7772,"ronized":7773,"Ġglitter":7774,"Ġglances":7775,"Ġglancing":7776,"Ġfarmer":7777,"Ġguarded":7778,"Ġguardrail":7779,"Ġpatro":7780,"ensils":7781,"Ġrefuse":7782,"Ġrefresh":7783,"Ġprofession":7784,"Ġeyeglasses":7785,"hop":7786,"Ġparasailor":7787,"Ġslippery":7788,"Ġapproached":7789,"Ġbreakd":7790,"ize":7791,"snowy":7792,"Ġsailboats":7793,"Ġintercept":7794,"Ġinterior":7795,"Ġtwent":7796,"Ġtwist":7797,"Ġtwisted":7798,"Ġtowers":7799,"Ġtowels":7800,"Ġrobed":7801,"Ġconstructed":7802,"Ġparticipant":7803,"firemen":7804,"fireworks":7805,"Ġviolins":7806,"Ġquicker":7807,"skateboarders":7808,"ocr":7809,"occupied":7810,"Ġincredible":7811,"Ġbonfire":7812,"Ġpenance":7813,"Ġstumps":7814,"lining":7815,"Ġtrips":7816,"Ġtrials":7817,"Ġtriangular":7818,"Ġtriangle":7819,"Ġgrove":7820,"Ġprotested":7821,"Ġburrowing":7822,"Ġdusted":7823,"Ġgroomed":7824,"Ġforwards":7825,"Ġnotice":7826,"Ġknitted":7827,"Ġmasses":7828,"Ġtrotter":7829,"Ġtimeout":7830,"Ġcoaches":7831,"Ġdescend":7832,"Ġcircles":7833,"Ġportion":7834,"Ġdaredevil":7835,"Ġtightly":7836,"Ġgolfer":7837,"father":7838,"Ġbeams":7839,"Ġstudent":7840,"Ġstudies":7841,"Ġvaried":7842,"Ġattacks":7843,"Ġattacked":7844,"Ġcollected":7845,"snowboarding":7846,"Ġdinnertime":7847,"Ġpeer":7848,"Ġpalmar":7849,"Ġcontrolling":7850,"Ġblazed":7851,"Ġpedestal":7852,"Ġtutors":7853,"Ġboris":7854,"Ġthinking":7855,"Ġcelebration":7856,"Ġinnertub":7857,"Ġwildly":7858,"Ġwildebe":7859,"Ġcaseating":7860,"Ġshipboard":7861,"Ġswordfight":7862,"ptian":7863,"Ġaimed":7864,"Ġperhaps":7865,"Ġperpendic":7866,"Ġscramble":7867,"Ġscrubland":7868,"Ġengaging":7869,"Ġenglish":7870,"Ġsalt":7871,"Ġsalver":7872,"Ġweights":7873,"Ġwebster":7874,"Ġgoodby":7875,"Ġdrawings":7876,"Ġcomplex":7877,"Ġtaught":7878,"Ġdobermans":7879,"Ġflea":7880,"Ġflew":7881,"Ġfleet":7882,"Ġarchitect":7883,"Ġpresidential":7884,"Ġoverlooked":7885,"Ġdaughters":7886,"behind":7887,"riders":7888,"Ġsoup":7889,"Ġcalico":7890,"Ġtubes":7891,"Ġtubular":7892,"Ġgentlemen":7893,"Ġhumans":7894,"Ġexcitedly":7895,"Ġcontrols":7896,"Ġbadges":7897,"Ġdishes":7898,"Ġdisheve":7899,"Ġlinked":7900,"Ġpossib":7901,"Ġpawing":7902,"Ġartistic":7903,"Ġponytails":7904,"Ġreflections":7905,"Ġescorted":7906,"Ġwandering":7907,"Ġorigin":7908,"Ġdemolished":7909,"Ġdumping":7910,"Ġcropped":7911,"Ġcrooked":7912,"Ġsheltered":7913,"Ġmexico":7914,"Ġmexicans":7915,"Ġswordsman":7916,"Ġfashionably":7917,"Ġsaturated":7918,"Ġfreak":7919,"Ġfreestyle":7920,"Ġtoolbox":7921,"Ġoperate":7922,"Ġattentive":7923,"Ġattentively":7924,"Ġstretcher":7925,"Ġincludes":7926,"Ġminimal":7927,"Ġwindowsill":7928,"Ġworkshop":7929,"Ġquarterpipe":7930,"Ġsimilarly":7931,"Ġcannonball":7932,"Ġpinstri":7933,"Ġpinwheel":7934,"Ġduke":7935,"Ġcrust":7936,"Ġcruise":7937,"Ġcrucif":7938,"Ġcruisers":7939,"Ġmelts":7940,"Ġdonning":7941,"Ġdonets":7942,"Ġfurnace":7943,"Ġnicely":7944,"Ġsponsors":7945,"Ġrepelled":7946,"Ġnavigable":7947,"Ġtransparent":7948,"birds":7949,"Ġpyrote":7950,"Ġstalls":7951,"Ġregain":7952,"Ġpursues":7953,"Ġmarshy":7954,"Ġstartled":7955,"Ġexploring":7956,"Ġyouths":7957,"Ġbagpipers":7958,"Ġcharacter":7959,"Ġgallops":7960,"Ġavrovul":7961,"Ġcrafts":7962,"Ġglowing":7963,"Ġnursery":7964,"Ġoutcry":7965,"Ġundone":7966,"Ġundershirt":7967,"Ġlearns":7968,"Ġpopulated":7969,"Ġtreading":7970,"Ġsombre":7971,"Ġpouch":7972,"Ġpoured":7973,"Ġpressed":7974,"Ġmills":7975,"Ġfeels":7976,"Ġremoved":7977,"Ġsoldiers":7978,"Ġdrainage":7979,"Ġobscurity":7980,"Ġvideotapes":7981,"motorcyclists":7982,"Ġdachshunds":7983,"Ġovershadow":7984,"Ġmorals":7985,"Ġgenetic":7986,"Ġfinds":7987,"Ġfinding":7988,"Ġluncheon":7989,"Ġthreatening":7990,"Ġgreeting":7991,"Ġknocks":7992,"Ġknocked":7993,"Ġknotted":7994,"Ġsuperv":7995,"Ġornaments":7996,"Ġcontestants":7997,"Ġwristwatch":7998,"Ġeyebrow":7999,"Ġpursuing":8000,"Ġavoiding":8001,"Ġskyscrapers":8002,"africans":8003,"marching":8004,"marathon":8005,"professional":8006,"Ġbrake":8007,"Ġinvolved":8008,"Ġdiamond":8009,"Ġferons":8010,"Ġshawls":8011,"Ġconditions":8012,"Ġmoonwalk":8013,"Ġunfur":8014,"Ġillumin":8015,"Ġvictoria":8016,"Ġtraverse":8017,"Ġbarber":8018,"Ġcompanion":8019,"Ġentertained":8020,"Ġprotector":8021,"Ġprotectors":8022,"Ġpossessions":8023,"Ġsomersa":8024,"Ġelbow":8025,"Ġawait":8026,"Ġoddly":8027,"hics":8028,"Ġgrownup":8029,"Ġflashing":8030,"Ġwhisper":8031,"eteran":8032,"Ġangles":8033,"Ġusual":8034,"Ġpoorly":8035,"Ġsunbathers":8036,"Ġconfrontation":8037,"Ġtemples":8038,"Ġnotebook":8039,"Ġskydiving":8040,"Ġskydivers":8041,"Ġskydiver":8042,"Ġdesigns":8043,"Ġdesigned":8044,"Ġsweatband":8045,"Ġcustomers":8046,"Ġmuscles":8047,"Ġaccepted":8048,"Ġaerobic":8049,"Ġflexing":8050,"post":8051,"point":8052,"shippers":8053,"zaga":8054,"Ġqueen":8055,"Ġamplif":8056,"Ġsynch":8057,"Ġsinking":8058,"Ġsinks":8059,"Ġsightseeing":8060,"Ġbellbott":8061,"Ġtumbler":8062,"Ġfinely":8063,"Ġsteadily":8064,"Ġgrimacing":8065,"Ġpockets":8066,"Ġreclining":8067,"Ġclutches":8068,"Ġlighted":8069,"Ġhandicap":8070,"Ġdraws":8071,"Ġcolonial":8072,"Ġvacation":8073,"Ġconsumed":8074,"Ġcaptains":8075,"Ġcanadian":8076,"Ġenergy":8077,"Ġbroadly":8078,"Ġbroadway":8079,"Ġhooker":8080,"Ġaccident":8081,"Ġtwigs":8082,"Ġfeatures":8083,"policeman":8084,"Ġseparated":8085,"Ġolympic":8086,"camera":8087,"Ġidea":8088,"Ġutensils":8089,"Ġwitness":8090,"Ġdeli":8091,"Ġdivided":8092,"Ġfalse":8093,"Ġfalcon":8094,"Ġhacking":8095,"Ġrickets":8096,"Ġrickety":8097,"Ġstirs":8098,"chnics":8099,"Ġyells":8100,"Ġrotweiler":8101,"Ġantique":8102,"Ġshutters":8103,"Ġbuffalo":8104,"Ġrecreation":8105,"Ġrecreational":8106,"Ġreviewing":8107,"Ġmustard":8108,"Ġmustached":8109,"Ġcomforting":8110,"Ġcontemplate":8111,"Ġconcentrated":8112,"Ġdefensive":8113,"Ġbranded":8114,"Ġkickboxing":8115,"Ġmaryland":8116,"Ġattaching":8117,"Ġmeasured":8118,"Ġcollap":8119,"Ġstaffords":8120,"Ġrummaged":8121,"Ġrummaging":8122,"Ġenthusiastically":8123,"golden":8124,"hands":8125,"jumping":8126,"kayaker":8127,"members":8128,"parade":8129,"parents":8130,"slater":8131,"silhouette":8132,"zona":8133,"Ġvera":8134,"Ġigno":8135,"Ġaxe":8136,"Ġaffectionately":8137,"Ġweaving":8138,"Ġinformation":8139,"Ġinternational":8140,"Ġpunctured":8141,"Ġpearls":8142,"Ġcylinder":8143,"Ġmadly":8144,"Ġtinted":8145,"Ġglee":8146,"Ġdodgeball":8147,"Ġfurious":8148,"Ġfearing":8149,"Ġfootstep":8150,"Ġstudded":8151,"Ġyankee":8152,"Ġattending":8153,"Ġlonghaired":8154,"Ġhistoric":8155,"Ġcockpit":8156,"Ġsprawled":8157,"Ġeastpak":8158,"Ġsuggest":8159,"Ġsolitary":8160,"Ġgothic":8161,"Ġfluore":8162,"newlyweds":8163,"Ġaddresses":8164,"Ġamazing":8165,"Ġhundreds":8166,"Ġextinguish":8167,"Ġworship":8168,"Ġdisguises":8169,"Ġbreathing":8170,"Ġsloughing":8171,"Ġgorgeous":8172,"Ġfringe":8173,"Ġcontinue":8174,"Ġparasurfer":8175,"Ġpencil":8176,"Ġbursting":8177,"Ġexcitement":8178,"Ġpeddlers":8179,"Ġmagician":8180,"athletic":8181,"Ġsnowmobiling":8182,"Ġvisitors":8183,"Ġbookshelf":8184,"Ġillustration":8185,"Ġaccepts":8186,"Ġaerodynamic":8187,"Ġadolescent":8188,"Ġtumbleweed":8189,"Ġweimaraner":8190,"Ġghostbusters":8191,"Ġdaschund":8192,"Ġcertificates":8193,"Ġhandkerchief":8194,"cript":8195,"catcher":8196,"olated":8197,"performer":8198,"priest":8199,"tattooed":8200,"waterskier":8201,"window":8202,"wrestle":8203,"yorkshire":8204,"Ġarizona":8205,"Ġastroturf":8206,"Ġsatchels":8207,"Ġsystem":8208,"Ġsalmon":8209,"Ġsamson":8210,"Ġbiscuit":8211,"Ġoregon":8212,"Ġoranges":8213,"Ġousting":8214,"Ġpantry":8215,"Ġdagger":8216,"Ġdiego":8217,"Ġmounted":8218,"Ġtartar":8219,"Ġtambourines":8220,"Ġtrousers":8221,"Ġgonzaga":8222,"Ġgnaws":8223,"Ġdoubled":8224,"Ġdoughnut":8225,"Ġonlooker":8226,"Ġhunter":8227,"Ġhomes":8228,"Ġhumble":8229,"uniformed":8230,"Ġstrength":8231,"Ġstuntman":8232,"Ġbohemian":8233,"Ġtortoise":8234,"asaki":8235,"Ġyacht":8236,"Ġhissing":8237,"Ġhidden":8238,"Ġthrilled":8239,"Ġnutcracker":8240,"Ġlowered":8241,"Ġlonely":8242,"Ġgraphics":8243,"Ġantrum":8244,"Ġshamrocks":8245,"students":8246,"Ġcoronet":8247,"Ġbackbends":8248,"Ġcarabineers":8249,"Ġcaravan":8250,"Ġbudweiser":8251,"Ġkawasaki":8252,"Ġegyptian":8253,"Ġrectangular":8254,"Ġrecoils":8255,"Ġrespo":8256,"Ġreleased":8257,"Ġchandelier":8258,"Ġmottled":8259,"Ġheadwraps":8260,"Ġfootbridge":8261,"Ġpavilion":8262,"Ġcatholic":8263,"Ġcarolina":8264,"Ġvista":8265,"Ġscrimmage":8266,"Ġcommercial":8267,"quarterback":8268,"Ġconvenience":8269,"Ġtechnical":8270,"Ġlongsleeve":8271,"Ġdangerous":8272,"Ġaggressive":8273,"Ġamnesty":8274,"Ġnondescript":8275,"Ġkickflip":8276,"Ġpreserves":8277,"Ġprecarious":8278,"Ġpregnant":8279,"Ġenactment":8280,"Ġstarbucks":8281,"Ġstorefronts":8282,"Ġlawnmower":8283,"Ġrollercoaster":8284,"Ġalcohol":8285,"Ġharmonize":8286,"Ġapparently":8287,"Ġsimpson":8288,"Ġsnuggling":8289,"Ġearmuffs":8290,"Ġdancefloor":8291,"Ġemployees":8292,"Ġtrooper":8293,"Ġterminal":8294,"Ġchicago":8295,"Ġaccessories":8296,"Ġrefreshment":8297,"Ġparasailors":8298,"Ġinnertubes":8299,"Ġperpendicular":8300,"Ġarchitectural":8301,"Ġdisheveled":8302,"Ġpossibly":8303,"Ġpinstripe":8304,"Ġpyrotechnics":8305,"Ġavrovulcan":8306,"Ġilluminated":8307,"Ġamplifier":8308,"Ġsynchronized":8309,"Ġbellbottoms":8310,"Ġstaffordshire":8311,"Ġsuggestive":8312}